const unsigned char model_resp_tflite[] __attribute__((aligned(16))) = {
  0x1c, 0x00, 0x00, 0x00, 0x54, 0x46, 0x4c, 0x33, 0x14, 0x00, 0x20, 0x00,
  0x1c, 0x00, 0x18, 0x00, 0x14, 0x00, 0x10, 0x00, 0x0c, 0x00, 0x00, 0x00,
  0x08, 0x00, 0x04, 0x00, 0x14, 0x00, 0x00, 0x00, 0x1c, 0x00, 0x00, 0x00,
  0x1c, 0x00, 0x00, 0x00, 0x74, 0x00, 0x00, 0x00, 0x98, 0x36, 0x00, 0x00,
  0xa8, 0x36, 0x00, 0x00, 0x14, 0x3b, 0x00, 0x00, 0x03, 0x00, 0x00, 0x00,
  0x00, 0x00, 0x00, 0x00, 0x02, 0x00, 0x00, 0x00, 0x34, 0x00, 0x00, 0x00,
  0x04, 0x00, 0x00, 0x00, 0xdc, 0xff, 0xff, 0xff, 0x0c, 0x00, 0x00, 0x00,
  0x04, 0x00, 0x00, 0x00, 0x13, 0x00, 0x00, 0x00, 0x43, 0x4f, 0x4e, 0x56,
  0x45, 0x52, 0x53, 0x49, 0x4f, 0x4e, 0x5f, 0x4d, 0x45, 0x54, 0x41, 0x44,
  0x41, 0x54, 0x41, 0x00, 0x08, 0x00, 0x0c, 0x00, 0x08, 0x00, 0x04, 0x00,
  0x08, 0x00, 0x00, 0x00, 0x0b, 0x00, 0x00, 0x00, 0x04, 0x00, 0x00, 0x00,
  0x13, 0x00, 0x00, 0x00, 0x6d, 0x69, 0x6e, 0x5f, 0x72, 0x75, 0x6e, 0x74,
  0x69, 0x6d, 0x65, 0x5f, 0x76, 0x65, 0x72, 0x73, 0x69, 0x6f, 0x6e, 0x00,
  0x0d, 0x00, 0x00, 0x00, 0x20, 0x36, 0x00, 0x00, 0x18, 0x36, 0x00, 0x00,
  0x88, 0x35, 0x00, 0x00, 0x6c, 0x35, 0x00, 0x00, 0xdc, 0x34, 0x00, 0x00,
  0xcc, 0x14, 0x00, 0x00, 0xbc, 0x01, 0x00, 0x00, 0xac, 0x00, 0x00, 0x00,
  0xa4, 0x00, 0x00, 0x00, 0x9c, 0x00, 0x00, 0x00, 0x94, 0x00, 0x00, 0x00,
  0x74, 0x00, 0x00, 0x00, 0x04, 0x00, 0x00, 0x00, 0xaa, 0xca, 0xff, 0xff,
  0x04, 0x00, 0x00, 0x00, 0x60, 0x00, 0x00, 0x00, 0x10, 0x00, 0x00, 0x00,
  0x00, 0x00, 0x00, 0x00, 0x08, 0x00, 0x0e, 0x00, 0x08, 0x00, 0x04, 0x00,
  0x08, 0x00, 0x00, 0x00, 0x10, 0x00, 0x00, 0x00, 0x24, 0x00, 0x00, 0x00,
  0x00, 0x00, 0x06, 0x00, 0x08, 0x00, 0x04, 0x00, 0x06, 0x00, 0x00, 0x00,
  0x04, 0x00, 0x00, 0x00, 0x00, 0x00, 0x00, 0x00, 0x0c, 0x00, 0x18, 0x00,
  0x14, 0x00, 0x10, 0x00, 0x0c, 0x00, 0x04, 0x00, 0x0c, 0x00, 0x00, 0x00,
  0xae, 0xbe, 0x94, 0xb3, 0x67, 0xe7, 0xfa, 0x3f, 0x03, 0x00, 0x00, 0x00,
  0x02, 0x00, 0x00, 0x00, 0x04, 0x00, 0x00, 0x00, 0x06, 0x00, 0x00, 0x00,
  0x32, 0x2e, 0x32, 0x30, 0x2e, 0x30, 0x00, 0x00, 0x16, 0xcb, 0xff, 0xff,
  0x04, 0x00, 0x00, 0x00, 0x10, 0x00, 0x00, 0x00, 0x31, 0x2e, 0x35, 0x2e,
  0x30, 0x00, 0x00, 0x00, 0x00, 0x00, 0x00, 0x00, 0x00, 0x00, 0x00, 0x00,
  0x30, 0xc6, 0xff, 0xff, 0x34, 0xc6, 0xff, 0xff, 0x38, 0xc6, 0xff, 0xff,
  0x3e, 0xcb, 0xff, 0xff, 0x04, 0x00, 0x00, 0x00, 0x00, 0x01, 0x00, 0x00,
  0x64, 0x38, 0x10, 0xbe, 0x46, 0xae, 0xf7, 0xbd, 0xcb, 0x82, 0x8b, 0x3e,
  0x10, 0xd5, 0x10, 0x3f, 0xfd, 0x03, 0x19, 0x3f, 0x6a, 0x11, 0x87, 0x3e,
  0x63, 0xac, 0x30, 0x3f, 0xb4, 0x24, 0xcb, 0x3d, 0x6b, 0xcd, 0xc7, 0x3e,
  0x88, 0xec, 0x3c, 0x3f, 0xb8, 0xfa, 0x2e, 0x3f, 0x0d, 0xc3, 0x17, 0x3d,
  0x58, 0xaa, 0xae, 0x3e, 0xf4, 0xa6, 0x17, 0x3f, 0x27, 0x4b, 0xb7, 0xbe,
  0x22, 0xd2, 0x64, 0x3e, 0x8d, 0xca, 0x8d, 0x3d, 0x82, 0xba, 0xfa, 0xbd,
  0x69, 0x80, 0x49, 0xbd, 0xf2, 0xcf, 0x3d, 0x3f, 0x76, 0xde, 0x9e, 0x3e,
  0x16, 0xdf, 0x84, 0xbd, 0xdd, 0x5e, 0x86, 0x3e, 0xcd, 0xfc, 0x52, 0x3f,
  0x60, 0x78, 0xa9, 0xbe, 0xcd, 0x41, 0xc7, 0xbf, 0xd2, 0xf6, 0x00, 0x3f,
  0xc8, 0x08, 0xba, 0x3e, 0xef, 0x90, 0xe7, 0xbe, 0x3e, 0x61, 0x12, 0x3f,
  0xe4, 0x85, 0x99, 0x3e, 0xd9, 0xbf, 0x75, 0xbb, 0x0c, 0x54, 0x2b, 0x3f,
  0x7c, 0x83, 0x0d, 0x3f, 0x6b, 0x69, 0x02, 0x3e, 0x6e, 0xc9, 0xcf, 0x3d,
  0x20, 0xa7, 0xe8, 0x3e, 0x00, 0x00, 0x00, 0x00, 0x06, 0x8d, 0xca, 0x3e,
  0x32, 0x13, 0xa2, 0x3c, 0xdb, 0x52, 0x19, 0xbd, 0xd2, 0x12, 0xb6, 0xbe,
  0x87, 0x56, 0x76, 0x3e, 0x67, 0x7a, 0x0d, 0x3f, 0x59, 0x90, 0xd9, 0x3e,
  0xdc, 0xcb, 0x0c, 0xbe, 0xb8, 0xe8, 0x22, 0x3f, 0x3f, 0x7e, 0x27, 0x3f,
  0x63, 0x19, 0xd7, 0xbe, 0x35, 0x63, 0x16, 0x3f, 0x9c, 0x9b, 0x8c, 0x3b,
  0xba, 0x69, 0x83, 0x3f, 0xfe, 0x2c, 0x8d, 0xbe, 0xb4, 0xf2, 0x27, 0xbf,
  0x96, 0x54, 0x1e, 0x3f, 0x8d, 0xa2, 0x1a, 0x3f, 0xef, 0xb4, 0x97, 0x3e,
  0xef, 0xd8, 0xb1, 0x3d, 0xf6, 0x1d, 0x87, 0xbf, 0xf1, 0x73, 0xa7, 0x3e,
  0xc7, 0xc0, 0x44, 0x3e, 0xac, 0x46, 0xb2, 0x3e, 0x3b, 0xa6, 0xe8, 0x3e,
  0x23, 0x7d, 0x6f, 0x3f, 0x4a, 0xcc, 0xff, 0xff, 0x04, 0x00, 0x00, 0x00,
  0x00, 0x13, 0x00, 0x00, 0x6a, 0xc6, 0x94, 0xbe, 0xbe, 0xd8, 0xbd, 0xbd,
  0xf4, 0xf9, 0x0d, 0x3d, 0xb1, 0xfd, 0x5f, 0xbe, 0x5e, 0xb2, 0x83, 0xbf,
  0x9f, 0xea, 0x9b, 0xbe, 0x49, 0xee, 0x9e, 0xbe, 0x49, 0x91, 0xc0, 0xbd,
  0xfe, 0x9d, 0xf3, 0xbd, 0x39, 0xeb, 0x41, 0x3e, 0x23, 0xf2, 0xc2, 0xbe,
  0x3f, 0xf6, 0x99, 0xbe, 0xb9, 0x07, 0xaf, 0x3e, 0x3a, 0xba, 0xf4, 0xbe,
  0xd4, 0x2f, 0x9b, 0xbe, 0xc6, 0xd1, 0xac, 0x3e, 0xa9, 0x76, 0x7c, 0xbe,
  0x29, 0xa7, 0x43, 0x3e, 0x20, 0xd3, 0xf0, 0x3f, 0x28, 0xf6, 0xb4, 0xbe,
  0x6c, 0x14, 0x1e, 0xbe, 0x5f, 0x04, 0xe5, 0x3e, 0x4c, 0xbf, 0xf2, 0x3e,
  0x2e, 0x72, 0x96, 0xbe, 0x2b, 0xe5, 0xd3, 0xbe, 0x5a, 0xb1, 0xe8, 0x3e,
  0x4e, 0xfe, 0xce, 0x3e, 0x01, 0xa4, 0x8c, 0x3f, 0x05, 0x6c, 0x51, 0x3f,
  0x23, 0xcb, 0x04, 0x3f, 0x59, 0x1c, 0x31, 0xbf, 0xc0, 0x69, 0x04, 0xbf,
  0xee, 0x44, 0x5e, 0xbd, 0x11, 0xcb, 0x2f, 0x3a, 0x34, 0xe2, 0xe4, 0xbf,
  0x07, 0x3a, 0xff, 0xbe, 0x39, 0x19, 0xed, 0xbe, 0x13, 0xcf, 0x14, 0xbe,
  0x30, 0x8b, 0x0f, 0xbf, 0xc9, 0x48, 0xc9, 0xbe, 0x1c, 0x15, 0x18, 0xbf,
  0x1a, 0x72, 0xa3, 0x3d, 0xbb, 0x46, 0xeb, 0xbe, 0xbf, 0xc8, 0x01, 0xbf,
  0x43, 0xa5, 0xa9, 0x3e, 0x71, 0xa3, 0x85, 0x3d, 0x2c, 0x4b, 0x95, 0xbf,
  0x9a, 0x04, 0x09, 0xbe, 0x87, 0xf8, 0xf4, 0x3e, 0x32, 0x49, 0xb5, 0x3e,
  0x34, 0x65, 0x5b, 0xbf, 0xb6, 0x7a, 0xee, 0x3e, 0x70, 0x7a, 0x87, 0x3f,
  0x48, 0xea, 0xca, 0xb9, 0x16, 0x13, 0x22, 0xbf, 0x37, 0x10, 0x8c, 0x3e,
  0xb6, 0x22, 0xe7, 0x3e, 0x9a, 0x9a, 0x13, 0xbf, 0x5e, 0x7a, 0x8c, 0xbd,
  0xa6, 0xdb, 0x42, 0xbe, 0x84, 0x31, 0x90, 0xbe, 0xe5, 0xb9, 0x8a, 0x3e,
  0xf5, 0x49, 0x3d, 0xbe, 0x7a, 0x87, 0xd0, 0x3e, 0x8f, 0xf5, 0xc9, 0x3e,
  0x7e, 0x74, 0xe3, 0x3e, 0x85, 0xe6, 0xcb, 0xbe, 0x8b, 0x15, 0x29, 0xbf,
  0x17, 0xc4, 0x8f, 0xbe, 0xd6, 0xf7, 0x73, 0x3d, 0x04, 0x89, 0xf8, 0x3e,
  0x8f, 0xcb, 0x15, 0x3f, 0xaa, 0x14, 0xfd, 0x3e, 0xaa, 0xfe, 0x1f, 0xbe,
  0x41, 0x91, 0x9a, 0xbf, 0x3d, 0x5d, 0x6f, 0xbf, 0x3a, 0xca, 0x06, 0xbf,
  0x9d, 0xa9, 0xcc, 0xbe, 0xcf, 0x74, 0xf8, 0xbe, 0x43, 0x0c, 0x27, 0x3e,
  0xf8, 0xb7, 0x9b, 0x3f, 0xef, 0xba, 0x87, 0xbf, 0xc7, 0xf4, 0x4f, 0xbf,
  0xd7, 0x44, 0x21, 0x3f, 0x5d, 0x6c, 0x98, 0xbd, 0x74, 0xa4, 0x93, 0x3e,
  0xd5, 0x5d, 0xef, 0xbe, 0x07, 0xbc, 0x4b, 0xbc, 0xd4, 0xda, 0xac, 0x3d,
  0x9e, 0x8d, 0xcc, 0x3d, 0xc2, 0xc3, 0x16, 0xbe, 0x4c, 0x6d, 0xf8, 0xbe,
  0xb1, 0x5f, 0xad, 0xbe, 0x19, 0x72, 0xae, 0xbd, 0xdf, 0x05, 0xb0, 0x3e,
  0x06, 0x77, 0x7c, 0xbf, 0x1f, 0x3e, 0x02, 0xbf, 0x80, 0x7c, 0xe6, 0xbd,
  0x6f, 0x6c, 0x0f, 0x3f, 0xc1, 0x29, 0xc1, 0x3e, 0xe3, 0x52, 0x54, 0x3f,
  0xcd, 0x29, 0xff, 0x3d, 0x00, 0x7f, 0x11, 0x3e, 0xea, 0xf6, 0x80, 0xbf,
  0xaa, 0x06, 0x66, 0xbe, 0x96, 0x7d, 0xa0, 0xbe, 0x1b, 0xca, 0x30, 0xbf,
  0x5c, 0xd7, 0x84, 0xbe, 0xab, 0x4c, 0xbf, 0xbe, 0x5b, 0x11, 0x24, 0xbf,
  0x22, 0x92, 0x40, 0x3f, 0xf7, 0xca, 0x56, 0xbf, 0x05, 0xf8, 0x47, 0xbe,
  0x33, 0xdb, 0x6f, 0xbe, 0x1d, 0x4e, 0x4d, 0xbf, 0xa8, 0x28, 0x04, 0xbd,
  0xb6, 0xe9, 0x71, 0xbe, 0x40, 0xbc, 0x32, 0xbe, 0x49, 0xa9, 0x15, 0xbf,
  0x4f, 0xbf, 0x95, 0xbe, 0xaf, 0x94, 0x06, 0xbf, 0x62, 0xc3, 0x0f, 0xbf,
  0x7d, 0x7a, 0x2c, 0xbf, 0x50, 0x2d, 0xa4, 0xbd, 0x56, 0xef, 0xfa, 0x3c,
  0x84, 0x1a, 0x03, 0xbf, 0x3c, 0x99, 0xe2, 0x3d, 0xca, 0x4b, 0x22, 0x3f,
  0x44, 0xa9, 0x30, 0x3f, 0x13, 0x98, 0x1c, 0x3f, 0x52, 0x40, 0x4c, 0xbe,
  0x45, 0x2f, 0xdf, 0x3e, 0x7a, 0x14, 0xba, 0x3e, 0x68, 0x2c, 0x3a, 0xbf,
  0xbe, 0x32, 0x33, 0xbe, 0x41, 0xee, 0x18, 0xbe, 0x3e, 0xe6, 0xce, 0x3e,
  0x3d, 0x88, 0x90, 0xbf, 0xd1, 0xe6, 0xb4, 0x3e, 0xd9, 0x33, 0x39, 0xbd,
  0x0f, 0x6d, 0x13, 0x3f, 0x39, 0xe2, 0x67, 0xbe, 0x72, 0x0f, 0x7a, 0x3f,
  0x64, 0xcc, 0xd2, 0xbe, 0x34, 0x9d, 0xd1, 0xbe, 0xe8, 0x08, 0x8c, 0x3e,
  0x2a, 0xfe, 0xa6, 0xbf, 0xe0, 0x3e, 0xa5, 0xbd, 0x6a, 0x0d, 0x08, 0xbf,
  0x62, 0x74, 0x4f, 0x3e, 0xc7, 0xb6, 0xbb, 0x3e, 0xc7, 0x47, 0x26, 0x3f,
  0xc9, 0xfd, 0xef, 0xbd, 0xd1, 0xf3, 0xb5, 0xbe, 0xdc, 0x53, 0xd4, 0x3d,
  0xef, 0x83, 0x3e, 0xbe, 0xa9, 0x40, 0xd5, 0xbe, 0x55, 0xcb, 0xf6, 0xbe,
  0xb9, 0x90, 0x4a, 0xbe, 0x96, 0xb7, 0xfd, 0xbe, 0x7f, 0x00, 0x50, 0x3f,
  0x67, 0x3b, 0xc4, 0xbd, 0x99, 0xda, 0x09, 0x3f, 0xc6, 0x8a, 0xc4, 0x3e,
  0x86, 0xc2, 0x8a, 0xbe, 0x25, 0x8e, 0x79, 0x3d, 0xc3, 0x59, 0x32, 0xbf,
  0x4b, 0xea, 0xd9, 0x3e, 0x71, 0x5b, 0x11, 0x3f, 0x65, 0xed, 0x3c, 0x3f,
  0xb6, 0x48, 0xa5, 0xbf, 0xd5, 0xd6, 0xf6, 0xbe, 0x5f, 0xf5, 0x0e, 0xbe,
  0xb8, 0x97, 0x14, 0xbf, 0x59, 0xd9, 0xe0, 0xbe, 0x6e, 0x19, 0x5b, 0xbe,
  0x3e, 0x81, 0x9f, 0xbe, 0xf1, 0x76, 0x1f, 0xbf, 0xd2, 0xb8, 0x13, 0x3e,
  0xa7, 0x29, 0x45, 0xbf, 0xc5, 0xed, 0x08, 0xbf, 0x56, 0x50, 0xed, 0x3d,
  0xdb, 0x86, 0x84, 0x3b, 0x40, 0x81, 0x12, 0x3e, 0xb6, 0x2f, 0xe0, 0x3d,
  0x58, 0x3d, 0xa4, 0x3e, 0xe5, 0xe3, 0x12, 0x3f, 0xf0, 0x20, 0xa2, 0x3d,
  0x47, 0x03, 0x4c, 0x3f, 0x39, 0x8e, 0xe7, 0x3e, 0x4a, 0x83, 0x03, 0xbf,
  0x97, 0x83, 0x0c, 0xbd, 0xf3, 0x18, 0xe3, 0xbd, 0xff, 0x7d, 0x93, 0xbe,
  0x1c, 0x8b, 0x62, 0xbd, 0x0f, 0x42, 0xd9, 0xbd, 0x25, 0xbe, 0x19, 0xbf,
  0xd0, 0xf6, 0xc0, 0xbe, 0x23, 0xe6, 0xa0, 0x3e, 0x2d, 0x38, 0x7a, 0x3e,
  0x72, 0x6a, 0x91, 0x3e, 0x62, 0x11, 0x73, 0x3e, 0xb6, 0x7e, 0xf4, 0xbe,
  0x6b, 0xac, 0x78, 0xbe, 0x65, 0x18, 0x96, 0xbf, 0xc3, 0x05, 0x3f, 0x3f,
  0xfd, 0x28, 0x87, 0x3f, 0x2b, 0xdf, 0x7c, 0xbf, 0xdc, 0x23, 0x41, 0xbf,
  0x25, 0xf7, 0xd7, 0xbe, 0x94, 0x8c, 0x88, 0x3c, 0x65, 0x18, 0x51, 0x3e,
  0x31, 0x10, 0x93, 0xbe, 0x30, 0x46, 0x9e, 0xbf, 0x65, 0x48, 0xe0, 0xbe,
  0x5f, 0xce, 0x6b, 0xbe, 0x72, 0xc2, 0x1a, 0x3f, 0x3c, 0x94, 0x65, 0xbf,
  0xef, 0x4d, 0xeb, 0x3b, 0x5c, 0xcd, 0x87, 0x3c, 0xce, 0x1f, 0x01, 0x3f,
  0x81, 0xc8, 0x67, 0x3f, 0x56, 0xf0, 0x41, 0xbe, 0xf7, 0xe6, 0x9e, 0x3e,
  0x1f, 0xb8, 0xd4, 0xbe, 0x9d, 0x19, 0xb4, 0xbe, 0x97, 0x9a, 0x90, 0xbe,
  0x84, 0x32, 0x79, 0x3f, 0xdd, 0x86, 0x67, 0xbf, 0x9a, 0xca, 0xdf, 0xbe,
  0xe5, 0x30, 0xab, 0xbd, 0xcd, 0xe0, 0x3c, 0xbe, 0x01, 0x83, 0x46, 0xbe,
  0x87, 0x32, 0x90, 0xbf, 0xc3, 0xe1, 0xd9, 0xbe, 0x65, 0xb5, 0xaf, 0x3d,
  0x44, 0x08, 0x1b, 0x3f, 0xa0, 0xd4, 0x14, 0x3e, 0xe1, 0x62, 0x0f, 0xbf,
  0xf0, 0xa2, 0x43, 0x3d, 0xf6, 0x53, 0x95, 0xbd, 0x6f, 0xc5, 0x7f, 0x3f,
  0x80, 0xa6, 0x17, 0x3f, 0xd3, 0xd1, 0x29, 0x3e, 0x59, 0x9f, 0xeb, 0x3e,
  0xc0, 0x38, 0xf5, 0xbd, 0xfd, 0xb3, 0x2f, 0x3f, 0xed, 0xf0, 0xb1, 0xbe,
  0x38, 0x65, 0x92, 0x3f, 0xf4, 0xff, 0x5a, 0xbe, 0xa0, 0xf2, 0xe8, 0xbe,
  0x45, 0x70, 0x0b, 0xbf, 0xd4, 0x97, 0x75, 0xbe, 0xd5, 0xc7, 0x94, 0xbf,
  0xb5, 0x4a, 0xbb, 0xbe, 0x80, 0x87, 0x7a, 0xbe, 0xdd, 0xd4, 0xb2, 0xbe,
  0xd6, 0x5e, 0x47, 0xbe, 0xc5, 0x26, 0x90, 0xbe, 0xf6, 0xb7, 0x89, 0xbd,
  0xd0, 0x17, 0x8f, 0x3e, 0xa5, 0xd7, 0xaa, 0x3e, 0x28, 0x3f, 0x0a, 0x3f,
  0x0b, 0x90, 0x0c, 0x3e, 0xe5, 0xbb, 0x90, 0x3d, 0x5c, 0x37, 0x35, 0xbf,
  0xec, 0x18, 0x59, 0xbe, 0xfd, 0x7f, 0x0f, 0xbf, 0x48, 0xdc, 0x8a, 0xbe,
  0x91, 0x0e, 0xe8, 0xbe, 0x60, 0x85, 0x6e, 0xbd, 0x82, 0xb9, 0x8d, 0xbe,
  0x92, 0xeb, 0x74, 0x3e, 0x57, 0x4a, 0xe9, 0xbd, 0x3c, 0x87, 0x20, 0xbe,
  0xd4, 0x8b, 0x82, 0x3e, 0x27, 0x59, 0xa1, 0x3e, 0xeb, 0x2b, 0xd0, 0x3e,
  0xf9, 0x60, 0x4f, 0xbd, 0xfb, 0xb7, 0x36, 0xbf, 0x7f, 0x34, 0x18, 0xbf,
  0xa2, 0x78, 0x75, 0xbe, 0xfd, 0xcf, 0x47, 0x3f, 0x01, 0xc7, 0xd1, 0x3e,
  0xbc, 0x7e, 0xad, 0x3f, 0x60, 0x90, 0xef, 0xbd, 0x20, 0x4d, 0x41, 0xbf,
  0x5d, 0xd9, 0x90, 0xbc, 0x34, 0x28, 0x69, 0x3f, 0xcb, 0x9e, 0x35, 0x3f,
  0xb1, 0xe3, 0xa0, 0x3e, 0x84, 0x2e, 0x22, 0x3f, 0xde, 0xb4, 0x3f, 0xbe,
  0xfe, 0xca, 0x6c, 0xbf, 0xe6, 0x39, 0xae, 0x3e, 0x84, 0xc6, 0xa0, 0x3c,
  0xda, 0x4b, 0x03, 0x3d, 0x73, 0xdf, 0x8e, 0xbe, 0x33, 0x5f, 0xf4, 0xbe,
  0xe8, 0x03, 0xb1, 0xbe, 0xf7, 0xc5, 0x6b, 0xbf, 0xfc, 0xf5, 0x54, 0xbe,
  0xc7, 0x3d, 0xdf, 0x3e, 0x6e, 0x39, 0xf5, 0x3e, 0x97, 0x3d, 0x26, 0xbe,
  0xe8, 0x11, 0x7a, 0xbf, 0x71, 0x1e, 0xb6, 0xbe, 0xcc, 0xa2, 0x16, 0x3f,
  0x8b, 0x98, 0xf5, 0xbd, 0x59, 0xcc, 0x9b, 0x3f, 0x0f, 0x60, 0x59, 0xbe,
  0xe8, 0xdf, 0xce, 0xbd, 0x0b, 0x1e, 0x94, 0xbe, 0xad, 0x48, 0xba, 0x3d,
  0x2b, 0x96, 0x83, 0x3d, 0x2f, 0x0d, 0x24, 0x3f, 0x57, 0x54, 0x99, 0x3e,
  0x76, 0x8e, 0x6a, 0xbf, 0x6f, 0xe2, 0x8b, 0xbe, 0x6d, 0xd9, 0x04, 0xbf,
  0xbf, 0xae, 0x4a, 0x3e, 0xc6, 0xdf, 0xf4, 0xbe, 0x23, 0x1d, 0x2c, 0x3e,
  0xe6, 0x52, 0x70, 0x3d, 0x66, 0x55, 0x96, 0xbd, 0x42, 0xa0, 0xc4, 0x3e,
  0xc7, 0xa6, 0x84, 0x3d, 0x39, 0xe2, 0xdf, 0x3d, 0x3f, 0x47, 0xa3, 0x3e,
  0x13, 0xd0, 0x23, 0x3d, 0x4f, 0xe9, 0x87, 0x3e, 0x0e, 0xf6, 0x26, 0x3f,
  0xf7, 0xf7, 0x92, 0x3e, 0x8e, 0x82, 0xe1, 0xbd, 0x65, 0x76, 0x2d, 0xbf,
  0x9f, 0xb2, 0x03, 0xbf, 0xd8, 0xbc, 0x88, 0x3e, 0x13, 0xe1, 0x3f, 0x3f,
  0xdf, 0xaa, 0x0e, 0xbf, 0x8a, 0x4f, 0xa4, 0xbf, 0xd8, 0x0a, 0xa5, 0xbf,
  0x32, 0x44, 0x82, 0x3f, 0xa4, 0x32, 0xb8, 0x3c, 0xfc, 0xba, 0xdc, 0xbd,
  0x09, 0xa7, 0x9c, 0xbd, 0x92, 0xe2, 0xd5, 0x3b, 0x83, 0xc2, 0x22, 0x3d,
  0x91, 0x2d, 0x36, 0xbe, 0x2f, 0x18, 0x99, 0x3e, 0x0a, 0x2e, 0x5b, 0xbf,
  0xd2, 0xee, 0x66, 0xbe, 0x98, 0x01, 0x77, 0xbd, 0x28, 0x8a, 0x3d, 0x3f,
  0xec, 0x0f, 0x59, 0x3c, 0xfb, 0x9e, 0x68, 0x3d, 0x07, 0x08, 0x36, 0xbe,
  0x51, 0x6f, 0x23, 0xbf, 0x8f, 0x0b, 0x78, 0xbf, 0x07, 0x62, 0x29, 0xbf,
  0xa4, 0x89, 0x30, 0x3f, 0x07, 0x29, 0xa6, 0x3f, 0x58, 0x02, 0x43, 0xbf,
  0x4f, 0x80, 0x85, 0xbe, 0x58, 0xd8, 0x2b, 0x3f, 0x78, 0xe2, 0x68, 0x3f,
  0xf6, 0xda, 0x56, 0x3f, 0xc6, 0xe2, 0x29, 0x3f, 0x1e, 0x91, 0x05, 0xbf,
  0x98, 0x12, 0xc8, 0x3e, 0x4e, 0x96, 0x86, 0xbe, 0x9d, 0x24, 0x3e, 0x3e,
  0x8c, 0xf6, 0x9e, 0xbe, 0x1f, 0x77, 0x14, 0xbf, 0x1b, 0x84, 0x3f, 0xbf,
  0x5e, 0x6a, 0x22, 0xbe, 0xd2, 0x77, 0xd8, 0xbe, 0x7d, 0x04, 0x50, 0xbe,
  0x70, 0x15, 0xc2, 0xbe, 0xc3, 0x31, 0x3e, 0xbf, 0x08, 0xe8, 0xdd, 0xbe,
  0xb7, 0x40, 0x00, 0xbe, 0xb9, 0x02, 0x41, 0xbf, 0xae, 0x39, 0x7b, 0x3e,
  0x77, 0xc3, 0x88, 0x3e, 0x3b, 0x0a, 0xc5, 0x3e, 0xc2, 0x5b, 0x54, 0x3e,
  0x2f, 0xa3, 0x65, 0x3f, 0xa5, 0x67, 0xbc, 0xbe, 0xce, 0x3b, 0x7e, 0xbf,
  0x4b, 0xcd, 0xdf, 0x3e, 0x78, 0xb8, 0xd7, 0x3e, 0xb1, 0xac, 0x91, 0xbf,
  0x8c, 0x79, 0x34, 0xbf, 0x48, 0x90, 0xb4, 0xbe, 0x5f, 0x05, 0x12, 0xbe,
  0xab, 0x22, 0xfa, 0xbe, 0xc4, 0xce, 0x09, 0x3f, 0xdf, 0x1b, 0x7b, 0xbd,
  0xd4, 0xf5, 0xff, 0x3e, 0xa7, 0x9b, 0xb0, 0xbe, 0xec, 0x9e, 0x54, 0x3e,
  0x34, 0x2d, 0xad, 0xbe, 0x4c, 0x83, 0xb2, 0x3e, 0xed, 0xe0, 0xaa, 0xbe,
  0xe4, 0x17, 0x65, 0x3f, 0xe8, 0x87, 0x23, 0x3f, 0x94, 0x01, 0x67, 0x3f,
  0x8a, 0xb6, 0xe1, 0x3e, 0x8c, 0x49, 0x8f, 0xbe, 0xf8, 0x63, 0x52, 0xbe,
  0xae, 0xa6, 0x99, 0xbf, 0xaf, 0xe0, 0x16, 0xbf, 0x91, 0x24, 0x33, 0xbf,
  0x8b, 0x9b, 0x99, 0xbd, 0x7f, 0xa3, 0x28, 0x3e, 0xba, 0x63, 0x5b, 0xbf,
  0x66, 0x9d, 0xf3, 0x3e, 0x91, 0x5c, 0x3e, 0x3e, 0xee, 0x27, 0x4d, 0xbf,
  0x4b, 0xb4, 0x96, 0xbe, 0x6a, 0xc5, 0xd9, 0x3d, 0x88, 0xbe, 0x0f, 0xbf,
  0x3f, 0x48, 0x36, 0xbf, 0xf8, 0x98, 0x21, 0xbf, 0xd0, 0xa3, 0x83, 0xbe,
  0x88, 0x11, 0xcb, 0xbe, 0x7e, 0xc1, 0x83, 0xbe, 0xca, 0x2e, 0x98, 0x3f,
  0x11, 0xbf, 0x43, 0xbe, 0xa7, 0xb1, 0x8a, 0xbe, 0x45, 0xf1, 0x6e, 0x3e,
  0x56, 0x61, 0xa4, 0x3d, 0x43, 0xb5, 0x11, 0x3f, 0x56, 0x5f, 0x41, 0x3f,
  0xeb, 0xad, 0xbd, 0x3e, 0x62, 0x00, 0x4c, 0xbf, 0x7a, 0x58, 0x03, 0x3f,
  0x9b, 0x24, 0x37, 0xbf, 0xaa, 0xfc, 0x2e, 0xbf, 0x70, 0xc6, 0xd7, 0xbe,
  0x98, 0x09, 0x7e, 0x3d, 0xf4, 0x34, 0xce, 0x3e, 0x2e, 0x4c, 0x49, 0x3f,
  0x36, 0x5f, 0x14, 0xbe, 0x3e, 0xcd, 0x03, 0xbf, 0xfa, 0x0a, 0x2a, 0xbf,
  0xd8, 0x05, 0x88, 0xbf, 0x35, 0x1b, 0x1d, 0x3e, 0xca, 0xf6, 0x57, 0xbf,
  0x9e, 0x0b, 0x25, 0xbf, 0x91, 0x34, 0xbf, 0x3d, 0x43, 0x8e, 0x71, 0x3e,
  0xae, 0x82, 0x55, 0x3d, 0x63, 0x1a, 0x93, 0x3e, 0x3d, 0xb5, 0xa1, 0x3c,
  0x05, 0x73, 0x13, 0x3f, 0x05, 0xd5, 0x34, 0xbf, 0xb5, 0xb9, 0x66, 0xbe,
  0x6d, 0x4d, 0x9f, 0xbc, 0x80, 0x06, 0x0f, 0xbf, 0xba, 0x2b, 0x24, 0x3f,
  0xf1, 0x16, 0xb3, 0xbf, 0x6d, 0x91, 0x22, 0x3f, 0x05, 0xe4, 0x28, 0xbf,
  0xd6, 0x03, 0x43, 0xbf, 0x93, 0x63, 0x2d, 0xbe, 0x01, 0x81, 0x28, 0x3f,
  0x67, 0xfa, 0xbe, 0x3e, 0xc9, 0x07, 0x22, 0x3f, 0x8e, 0x9b, 0xad, 0x3e,
  0xd5, 0x77, 0x97, 0xbd, 0x32, 0x76, 0x37, 0x3f, 0x96, 0xbb, 0x9e, 0x3e,
  0x5b, 0x51, 0xa5, 0x3e, 0x62, 0xbf, 0xac, 0x3e, 0x6c, 0x32, 0xa2, 0xbe,
  0xa7, 0xba, 0x61, 0xbe, 0x45, 0xba, 0x75, 0xbd, 0xfb, 0x52, 0x63, 0x3e,
  0x60, 0x61, 0x17, 0x3f, 0xab, 0xb8, 0x01, 0x3d, 0x7c, 0x82, 0x76, 0x3e,
  0x56, 0x8c, 0x07, 0x3e, 0x86, 0xa6, 0x55, 0xbd, 0xaa, 0x52, 0x1d, 0x3e,
  0xb0, 0x69, 0x96, 0x3e, 0x9b, 0x38, 0xb4, 0x3e, 0x8c, 0x3e, 0x22, 0x3f,
  0x75, 0xda, 0x06, 0x3f, 0x61, 0xf7, 0x3b, 0x3d, 0xad, 0x71, 0xc4, 0x3e,
  0xd7, 0x4f, 0xd3, 0x3e, 0xeb, 0xfb, 0x09, 0x3f, 0x0a, 0xc3, 0x4e, 0xbe,
  0xc4, 0x28, 0x68, 0xbf, 0x58, 0x7f, 0x47, 0xbe, 0x7c, 0x70, 0xc7, 0xbe,
  0xc1, 0x33, 0x76, 0xbe, 0x31, 0x37, 0x7d, 0x3f, 0xb8, 0xf0, 0x26, 0x3f,
  0x93, 0x89, 0xfb, 0xbe, 0x65, 0xaf, 0xd3, 0xbe, 0x45, 0x58, 0x1c, 0xbf,
  0x3e, 0xfc, 0x33, 0x3f, 0x3d, 0x0c, 0x48, 0x3e, 0x52, 0x54, 0x88, 0x3e,
  0xb5, 0xc3, 0x8e, 0x3d, 0x64, 0xe3, 0x59, 0xbe, 0x54, 0xa7, 0xa7, 0xbd,
  0x92, 0x11, 0x19, 0xbd, 0x2f, 0xf7, 0x3a, 0xbe, 0xb8, 0xd5, 0x81, 0x3e,
  0xf8, 0xfd, 0xa8, 0xbc, 0x6a, 0xc5, 0x74, 0xbf, 0xd5, 0x1e, 0xed, 0xbe,
  0xc0, 0xf1, 0xae, 0xbe, 0x39, 0x12, 0x39, 0x3d, 0x4d, 0x12, 0xb8, 0xbe,
  0x3f, 0x5e, 0x2d, 0xbf, 0x8e, 0xda, 0x45, 0xbf, 0xca, 0x57, 0xba, 0x3e,
  0xb5, 0x01, 0x8e, 0x3e, 0x4b, 0x10, 0x0e, 0x3e, 0x44, 0xe0, 0xb2, 0x3c,
  0x3e, 0x03, 0xd0, 0x3d, 0x62, 0x9c, 0xf8, 0xbd, 0x60, 0x00, 0x82, 0xbe,
  0x73, 0xb1, 0xa1, 0x3e, 0x60, 0xf2, 0x35, 0x3f, 0x28, 0x16, 0xd6, 0xbe,
  0x83, 0xea, 0xf7, 0x3e, 0x97, 0x98, 0x8e, 0x3f, 0xe0, 0xfa, 0x2b, 0xbe,
  0xb5, 0xe6, 0x32, 0xbe, 0x63, 0x64, 0x0f, 0x3e, 0xdc, 0x46, 0xd8, 0x3e,
  0x85, 0x93, 0xa7, 0x3e, 0x2a, 0xd4, 0x4d, 0xbe, 0x6c, 0x35, 0xaa, 0xbe,
  0xe3, 0xed, 0x02, 0x3f, 0x04, 0x6e, 0xcf, 0xbe, 0xee, 0xe5, 0x8c, 0x3f,
  0x9b, 0xbc, 0x24, 0xbe, 0xde, 0xdf, 0x08, 0xbe, 0xa0, 0x5f, 0xb5, 0xbe,
  0xc9, 0x8d, 0xc4, 0x3e, 0xc8, 0xd4, 0xcc, 0xbe, 0xfa, 0x6f, 0x26, 0xbf,
  0x7b, 0xa6, 0x1f, 0x3f, 0xf2, 0x00, 0x01, 0xbf, 0x01, 0xd1, 0x77, 0x3f,
  0x88, 0x9b, 0x2f, 0xbf, 0xcc, 0xfd, 0x04, 0xbf, 0xe1, 0x10, 0x39, 0xbf,
  0x8e, 0xab, 0xa1, 0xbe, 0x49, 0x06, 0x34, 0xbf, 0x9c, 0x5b, 0xb7, 0xbd,
  0x4c, 0xbd, 0x40, 0xbf, 0xbf, 0x8d, 0x82, 0xbf, 0xdf, 0x0e, 0x07, 0xbd,
  0x06, 0x55, 0x82, 0xbe, 0x6f, 0x99, 0xa8, 0x3d, 0xed, 0x92, 0x84, 0x3e,
  0x67, 0xfa, 0x06, 0xbf, 0xc5, 0x48, 0xc3, 0x3e, 0xaf, 0x89, 0x92, 0x3e,
  0xef, 0x26, 0x9c, 0x3e, 0xb5, 0x51, 0x4b, 0x3f, 0x73, 0x1e, 0x32, 0x3f,
  0x8e, 0xc2, 0x29, 0x3f, 0x7a, 0x8e, 0xc8, 0xbc, 0xef, 0x5b, 0x6b, 0xbe,
  0x06, 0x82, 0x32, 0x3e, 0x8d, 0xc8, 0xa7, 0xbd, 0x6c, 0x2d, 0x04, 0x3e,
  0x3e, 0x00, 0x0c, 0x3e, 0xfe, 0xe7, 0x9a, 0x3f, 0x87, 0x22, 0xa3, 0xbf,
  0x1a, 0x67, 0x30, 0xbf, 0xe7, 0xb8, 0xfd, 0x3d, 0xe1, 0x3e, 0x52, 0x3e,
  0x32, 0x08, 0x95, 0x3d, 0xf3, 0xe2, 0xee, 0x3d, 0x96, 0x45, 0xbc, 0x3d,
  0x49, 0x71, 0x2b, 0xbe, 0x5e, 0xaf, 0x1e, 0xbf, 0xc0, 0x0e, 0x12, 0x3f,
  0xe4, 0x61, 0x07, 0x3e, 0x15, 0x9e, 0x67, 0x3e, 0xa3, 0x97, 0xcc, 0xbe,
  0xb1, 0xc0, 0x0c, 0xbe, 0x1d, 0xa7, 0x71, 0x3e, 0x73, 0x1e, 0xc9, 0x3e,
  0xba, 0x44, 0x07, 0x3f, 0x22, 0xce, 0xc9, 0x3d, 0x13, 0x36, 0x80, 0x3e,
  0xc7, 0x78, 0x62, 0x3f, 0x35, 0x64, 0xbd, 0xbd, 0xf6, 0xdf, 0xfe, 0xbe,
  0x14, 0xb9, 0xc6, 0x3e, 0xb3, 0xdf, 0xdb, 0x3c, 0x93, 0x12, 0x13, 0x3f,
  0xdd, 0x75, 0x14, 0xbf, 0x94, 0x1c, 0x82, 0xbf, 0x52, 0x0c, 0x88, 0xbf,
  0xdd, 0x6a, 0x1d, 0x3f, 0x7d, 0x93, 0xbf, 0x3e, 0xf0, 0x5e, 0x55, 0xbf,
  0xee, 0x60, 0x97, 0xbf, 0xcd, 0x63, 0xfc, 0xbe, 0xb6, 0xd1, 0xf8, 0xbe,
  0xa9, 0xc5, 0x39, 0xbf, 0x7b, 0x76, 0x5d, 0xbf, 0xc9, 0x12, 0x7f, 0xbd,
  0xea, 0x69, 0x9e, 0xbd, 0xeb, 0x14, 0xb2, 0xbf, 0x98, 0xdc, 0xe4, 0x3d,
  0x28, 0x58, 0x57, 0x3e, 0xc7, 0x8a, 0xc5, 0xbe, 0xa7, 0x83, 0xfb, 0xbe,
  0x62, 0xbd, 0xa7, 0xbe, 0x66, 0x8f, 0x7f, 0x3e, 0x1c, 0xda, 0xcc, 0x3e,
  0xed, 0xd3, 0x36, 0x3f, 0x57, 0x19, 0x7e, 0x3e, 0x10, 0x59, 0xdf, 0x3e,
  0x93, 0xfd, 0x84, 0x3f, 0x52, 0xc9, 0x15, 0xbf, 0xdb, 0xc7, 0x2b, 0xbf,
  0xed, 0xb7, 0xd3, 0xbe, 0x4c, 0x07, 0xeb, 0xbe, 0x41, 0xeb, 0xc5, 0xbe,
  0xd2, 0x38, 0xce, 0xbd, 0x13, 0x0e, 0x38, 0xbe, 0x30, 0x78, 0x72, 0x3f,
  0x71, 0x7a, 0xcf, 0x3e, 0xc3, 0xff, 0x4b, 0xbe, 0xec, 0xf1, 0xc5, 0xbe,
  0x84, 0x91, 0x9d, 0xbe, 0xd5, 0xb9, 0x19, 0xbc, 0xb6, 0x29, 0x52, 0xbf,
  0xad, 0xc4, 0xf1, 0xbd, 0x7e, 0x07, 0x6c, 0x3e, 0xa2, 0xef, 0x4a, 0xbe,
  0xcf, 0x21, 0x21, 0x3e, 0xd0, 0xfe, 0x7b, 0x3f, 0x0e, 0x74, 0xd5, 0xbe,
  0xa1, 0xa7, 0x32, 0x3e, 0xba, 0xee, 0x9f, 0x3f, 0x01, 0x96, 0x50, 0x3e,
  0xff, 0x2f, 0x44, 0x3c, 0xb3, 0xc8, 0x02, 0x3f, 0xda, 0x83, 0x1d, 0xbf,
  0x0f, 0x19, 0x48, 0x3d, 0x36, 0xbb, 0x87, 0xbf, 0xf3, 0xe3, 0x26, 0xbf,
  0x6b, 0x90, 0x27, 0x3e, 0xb6, 0x6c, 0xbb, 0x3d, 0x0d, 0x7f, 0x96, 0xbe,
  0x4f, 0x5b, 0xe5, 0x3e, 0xa2, 0x11, 0xaa, 0x3e, 0xf3, 0x7c, 0x0b, 0xbf,
  0x0c, 0x52, 0x50, 0xbe, 0x4e, 0x58, 0xae, 0xbd, 0xed, 0x78, 0x24, 0xbf,
  0x1c, 0x37, 0x53, 0xbe, 0x52, 0xa9, 0x53, 0xbc, 0x3a, 0x1e, 0xc4, 0xbd,
  0x0f, 0xdb, 0x54, 0xba, 0x4c, 0x65, 0x83, 0xbe, 0x2d, 0xe5, 0x9e, 0xbd,
  0x1c, 0xbc, 0x5c, 0xbd, 0x07, 0x92, 0x29, 0xbe, 0x60, 0x66, 0x00, 0xbc,
  0xa8, 0x52, 0x98, 0xbd, 0xf5, 0x64, 0xd1, 0x3d, 0xdb, 0x55, 0xa6, 0xbe,
  0x46, 0xf3, 0xa6, 0xbe, 0x8d, 0xae, 0x84, 0xbe, 0xa8, 0x7f, 0x53, 0x3c,
  0xa9, 0xfc, 0x5b, 0xbe, 0xc2, 0xcb, 0x23, 0xbf, 0x58, 0x5c, 0x7f, 0xbe,
  0xda, 0x28, 0xd3, 0xbc, 0xfa, 0xf1, 0x83, 0xbf, 0x16, 0x53, 0x32, 0xbf,
  0x92, 0xab, 0x30, 0x3f, 0x5a, 0xfa, 0x12, 0xbc, 0x2e, 0x6e, 0x3c, 0xbf,
  0xbb, 0x29, 0xe0, 0xbf, 0xbd, 0x0f, 0xea, 0xbe, 0xdf, 0x2b, 0x64, 0x3c,
  0x09, 0x4d, 0x39, 0x3f, 0x38, 0x26, 0x24, 0x3e, 0xe9, 0xf5, 0x01, 0x3f,
  0xe0, 0xc9, 0x93, 0x3d, 0x60, 0x63, 0x35, 0x3d, 0xa7, 0x3b, 0x9b, 0xbe,
  0x9c, 0x54, 0xd8, 0x3e, 0x63, 0xeb, 0x7d, 0x3e, 0x85, 0x3d, 0xff, 0x3d,
  0x38, 0x74, 0x8e, 0x3e, 0x7f, 0x9a, 0x17, 0x3f, 0x08, 0x4a, 0xd5, 0xbd,
  0xde, 0xc9, 0xfb, 0xbd, 0xa6, 0x2d, 0x15, 0x3e, 0x66, 0x69, 0xc1, 0xbd,
  0xb0, 0x0e, 0x86, 0x3d, 0x4a, 0x08, 0x9a, 0xbd, 0x4d, 0xb7, 0x17, 0xbe,
  0x1c, 0x2a, 0x66, 0xbe, 0x90, 0x99, 0x84, 0xbd, 0x7c, 0xe8, 0xfa, 0x3d,
  0xb4, 0x0a, 0x5a, 0xbe, 0xd7, 0xb5, 0x2f, 0xbe, 0x7e, 0xed, 0x26, 0xbe,
  0x5c, 0x18, 0x67, 0xbe, 0x40, 0x5d, 0x4e, 0xbc, 0x40, 0xbf, 0x81, 0x3b,
  0x1c, 0x20, 0x50, 0xbd, 0x96, 0xe1, 0x10, 0xbe, 0xee, 0x14, 0xbd, 0xbd,
  0xc1, 0x7b, 0x05, 0x3f, 0x1b, 0xb5, 0xae, 0xbf, 0x4b, 0x01, 0xe1, 0xbe,
  0xe2, 0x7d, 0x11, 0x3e, 0xba, 0xd6, 0xca, 0xbe, 0xda, 0xcd, 0x27, 0x3e,
  0x7c, 0x09, 0xf1, 0xbe, 0x4e, 0xd7, 0x1d, 0xbe, 0x33, 0xdd, 0x63, 0xbb,
  0x11, 0xe2, 0xfe, 0xbe, 0xf8, 0x94, 0x7a, 0x3e, 0x1c, 0x27, 0x24, 0x3f,
  0xfa, 0x3e, 0xee, 0xbe, 0xef, 0x2d, 0x8a, 0xbe, 0xba, 0x78, 0x7d, 0xbe,
  0xbb, 0xfe, 0x03, 0x3f, 0xaf, 0x57, 0x0e, 0x3f, 0xd0, 0x45, 0x8f, 0x3e,
  0xc3, 0xfd, 0x9f, 0xbf, 0x9c, 0x21, 0x1d, 0xbf, 0xc3, 0xcc, 0x39, 0x3e,
  0xfa, 0x3d, 0xb0, 0xbe, 0xbb, 0xd2, 0x0b, 0xbe, 0x7b, 0xcc, 0xab, 0xbd,
  0x3e, 0x08, 0x02, 0xbe, 0xe5, 0xd0, 0x98, 0xbd, 0x88, 0xbf, 0x05, 0xbf,
  0x1a, 0x4d, 0x27, 0x3e, 0x2a, 0xa4, 0xbe, 0xbe, 0xc8, 0xf7, 0x62, 0xbd,
  0xe1, 0xea, 0xc9, 0xbe, 0x3c, 0x72, 0x0f, 0xbf, 0x73, 0xa9, 0xd9, 0xbc,
  0xdf, 0x69, 0x42, 0x3e, 0x22, 0xb1, 0x93, 0xbf, 0xb1, 0xfb, 0x4c, 0x3f,
  0x28, 0x05, 0x81, 0x3f, 0x5f, 0xe7, 0x91, 0x3f, 0xb6, 0xc4, 0xa3, 0xbd,
  0xbf, 0xff, 0xa5, 0xbe, 0x65, 0xec, 0x6a, 0xbe, 0x2b, 0x53, 0x68, 0x3e,
  0x26, 0x22, 0xcc, 0xbd, 0x65, 0xd2, 0x8e, 0xbe, 0x68, 0x96, 0x28, 0x3e,
  0xb6, 0xa7, 0x97, 0x3e, 0x4d, 0x9e, 0xa4, 0x3e, 0xcf, 0x68, 0x91, 0x3e,
  0xf2, 0xf5, 0x07, 0x3f, 0x42, 0xf5, 0x99, 0xbf, 0x2a, 0x4b, 0xe2, 0x3e,
  0x7a, 0x20, 0x48, 0xbe, 0x91, 0xeb, 0xea, 0xbe, 0x4f, 0x2e, 0x44, 0x3e,
  0xa5, 0x49, 0x88, 0x3e, 0x3e, 0xda, 0x69, 0xbf, 0xdb, 0x15, 0x56, 0x3f,
  0x9e, 0x09, 0xea, 0x3d, 0x2e, 0xa3, 0x70, 0x3e, 0xa5, 0xb9, 0x71, 0xbe,
  0xc2, 0x4b, 0x06, 0x3d, 0x48, 0x44, 0xb7, 0xbd, 0xd7, 0xef, 0x1c, 0xbd,
  0x13, 0x56, 0xf1, 0x3b, 0xb7, 0x86, 0x3f, 0xbf, 0x5f, 0xf4, 0x7a, 0x3f,
  0xbc, 0x9c, 0xac, 0x3f, 0x32, 0xae, 0x5a, 0x3f, 0xc4, 0xef, 0xcd, 0x3e,
  0xae, 0xd0, 0x9b, 0xbe, 0xff, 0x05, 0x94, 0xbe, 0xa3, 0x8a, 0x28, 0xbf,
  0xc1, 0xc7, 0x47, 0xbf, 0x77, 0xc8, 0xad, 0xbf, 0xed, 0xcb, 0x67, 0xbf,
  0x06, 0x47, 0xef, 0xbe, 0x57, 0x9a, 0xb3, 0xbe, 0x70, 0x78, 0x04, 0xbf,
  0x48, 0xda, 0xff, 0xbe, 0xc9, 0x2f, 0xa5, 0x3e, 0x5d, 0xce, 0x12, 0xbe,
  0xf7, 0xea, 0xd4, 0x3d, 0x04, 0xbe, 0xfd, 0xbe, 0x96, 0x0b, 0x37, 0xbf,
  0x21, 0xbc, 0xa7, 0x3c, 0xf8, 0xdf, 0xd1, 0xbd, 0x51, 0x18, 0x24, 0xbe,
  0x15, 0xe6, 0xa0, 0xbe, 0x8d, 0xe2, 0x2d, 0xbd, 0x18, 0x89, 0x80, 0xbe,
  0xc2, 0xbe, 0x61, 0x3f, 0xbf, 0xf4, 0x2a, 0x3f, 0x90, 0x91, 0x92, 0xbe,
  0x69, 0x8b, 0x68, 0x3f, 0x26, 0x87, 0xfa, 0x3e, 0x79, 0xc8, 0xe8, 0xbe,
  0xe1, 0x66, 0xc2, 0xbe, 0x9e, 0xc9, 0x57, 0xbd, 0x94, 0x0e, 0xea, 0xbe,
  0x18, 0x28, 0xcc, 0xbe, 0x8b, 0xf9, 0x16, 0xbf, 0x8a, 0xd9, 0x40, 0xbf,
  0xd5, 0x22, 0x85, 0xbf, 0x1c, 0x63, 0x25, 0xbf, 0x15, 0x80, 0xc9, 0xbe,
  0x2e, 0x27, 0x04, 0x3e, 0x09, 0x5a, 0x4a, 0xbe, 0xc9, 0x8b, 0x5c, 0x3d,
  0xf3, 0x82, 0x52, 0x3f, 0x9e, 0x18, 0x68, 0x3f, 0x12, 0x9d, 0x7b, 0x3f,
  0x0f, 0x98, 0x7e, 0x3f, 0x30, 0x39, 0x0f, 0x3f, 0x94, 0x4f, 0x18, 0xbe,
  0x98, 0x89, 0x58, 0xbe, 0x8e, 0x71, 0xa3, 0xbe, 0xe4, 0xb8, 0x7b, 0x3e,
  0xb1, 0x85, 0x65, 0xbd, 0x53, 0xb9, 0x27, 0xbe, 0x89, 0x41, 0xc2, 0xbe,
  0x69, 0x44, 0xb3, 0xbe, 0xf7, 0x74, 0x92, 0xbd, 0x39, 0x8b, 0x16, 0xbd,
  0xcb, 0x88, 0x05, 0x3f, 0xa9, 0xcc, 0xfe, 0x3e, 0xeb, 0x8e, 0x19, 0xbf,
  0x8d, 0xe0, 0x4a, 0xbf, 0x4f, 0xee, 0x76, 0xbf, 0x4e, 0x9f, 0xee, 0x3e,
  0xb6, 0xdf, 0x8e, 0x3e, 0x98, 0x4f, 0x97, 0xbe, 0xec, 0x80, 0xd4, 0x3e,
  0x09, 0xce, 0x6f, 0x3f, 0x67, 0x77, 0xaf, 0xbd, 0xbc, 0xe7, 0x01, 0xbd,
  0x9b, 0xd8, 0x09, 0x3f, 0x08, 0x4a, 0x56, 0x3e, 0x2e, 0xc8, 0x11, 0xbf,
  0xef, 0xa5, 0xa3, 0xbe, 0x39, 0x11, 0x93, 0xbd, 0x2c, 0x34, 0x03, 0xbf,
  0xd3, 0x5a, 0x3a, 0xbf, 0x7f, 0xa0, 0x4b, 0x3e, 0x98, 0xa5, 0xc0, 0x3e,
  0x16, 0xb4, 0x47, 0x3f, 0x76, 0xba, 0x09, 0xbe, 0xb8, 0xa9, 0xb5, 0x3e,
  0x2e, 0x9a, 0x51, 0x3e, 0x5d, 0xba, 0xd1, 0x3e, 0x39, 0x1d, 0x0c, 0xbf,
  0xba, 0x2f, 0x6f, 0xbf, 0x80, 0x3e, 0x80, 0x3f, 0xc2, 0xa5, 0x54, 0xbf,
  0x0e, 0x5f, 0x2a, 0xbf, 0xc9, 0x38, 0x53, 0x3f, 0xd5, 0x9e, 0x20, 0xbf,
  0x52, 0xf1, 0x7e, 0x3e, 0x4b, 0xb8, 0x61, 0xbd, 0x35, 0x5f, 0xeb, 0xbe,
  0xfc, 0x63, 0x75, 0xbe, 0xa5, 0xb9, 0x36, 0xbe, 0xdc, 0xdc, 0xb0, 0x3d,
  0xdb, 0xbc, 0x82, 0x3e, 0x25, 0xd8, 0x3c, 0x3f, 0x77, 0xff, 0x6b, 0xbe,
  0x8c, 0xe0, 0x29, 0xbf, 0x44, 0x1d, 0x47, 0x3f, 0xd8, 0xf0, 0x94, 0xbd,
  0xb5, 0x5f, 0xbf, 0xbe, 0xff, 0x68, 0x29, 0x3e, 0xab, 0x56, 0xd2, 0xbe,
  0xf8, 0x8a, 0x5e, 0xbf, 0xde, 0x15, 0x10, 0xbe, 0x1d, 0x80, 0x4c, 0xbf,
  0xb1, 0xa3, 0xa4, 0x3f, 0xcf, 0xf2, 0x46, 0x3e, 0xeb, 0x8d, 0x0f, 0xbf,
  0x1d, 0x94, 0x99, 0x3e, 0x30, 0xdc, 0xd9, 0xbe, 0xc6, 0x1f, 0x02, 0x3c,
  0x0c, 0x6f, 0xfd, 0xbe, 0x6b, 0xfd, 0x4b, 0x3e, 0x92, 0x3f, 0x99, 0xbe,
  0x16, 0x19, 0x46, 0xbc, 0x7a, 0xb0, 0xc3, 0x3e, 0x37, 0x7c, 0x0a, 0x3f,
  0x9b, 0x6c, 0xe2, 0x3d, 0xb8, 0x14, 0x3a, 0xbf, 0x57, 0x5f, 0x5d, 0xbf,
  0x32, 0x9f, 0x16, 0xbf, 0x3e, 0x89, 0xa5, 0x3e, 0x82, 0xe1, 0x90, 0x3e,
  0xc8, 0x2c, 0x48, 0x3f, 0xcf, 0x07, 0xc6, 0x3e, 0x3c, 0xd8, 0xa4, 0xbf,
  0x2e, 0x3d, 0x3b, 0xbf, 0xba, 0x12, 0xb4, 0xbd, 0x02, 0x88, 0x80, 0x3f,
  0xe4, 0x97, 0x18, 0x3f, 0x0e, 0xf2, 0xb4, 0x3e, 0x91, 0xaf, 0xaf, 0xbd,
  0x0a, 0xfe, 0xce, 0xbe, 0x87, 0xef, 0x8c, 0xbf, 0xf6, 0x37, 0x5a, 0xbf,
  0x85, 0xa8, 0x7d, 0xbf, 0x28, 0xa7, 0xd1, 0x3c, 0xed, 0x93, 0x27, 0x3e,
  0x42, 0x57, 0xc4, 0xbd, 0x5d, 0x51, 0xd6, 0xbe, 0x10, 0xf1, 0x26, 0xbf,
  0x23, 0x96, 0xf0, 0xbe, 0xe7, 0x12, 0x08, 0xbf, 0x5a, 0xd4, 0x92, 0xbe,
  0x2d, 0x24, 0xf4, 0xbe, 0x6b, 0x81, 0x23, 0xbf, 0xba, 0x84, 0xf4, 0xbe,
  0x54, 0x4a, 0x14, 0xbf, 0xed, 0xa7, 0xbc, 0x3e, 0xf0, 0x8e, 0x11, 0x3f,
  0x31, 0xa9, 0xb8, 0xbd, 0x6e, 0x62, 0xbb, 0x3c, 0x48, 0x3e, 0xa1, 0xbd,
  0x75, 0x6a, 0x61, 0xbf, 0x8e, 0x83, 0xe0, 0x3e, 0x50, 0x65, 0x20, 0x3f,
  0x21, 0xb8, 0xe9, 0x3e, 0x9e, 0xdd, 0x1e, 0x3f, 0x01, 0xab, 0x73, 0x3f,
  0xca, 0xd7, 0x23, 0xbf, 0x05, 0xef, 0xad, 0xbc, 0x74, 0x3d, 0xe8, 0x3e,
  0xa9, 0x50, 0x1c, 0x3e, 0xe3, 0x2d, 0x1b, 0x3f, 0x65, 0xe6, 0xcf, 0x3d,
  0x3f, 0xf0, 0x9c, 0x3e, 0xb5, 0x6b, 0x3a, 0x3f, 0x1a, 0xe8, 0x55, 0xbe,
  0xf6, 0x2a, 0x78, 0xbe, 0x56, 0x49, 0xfa, 0xbe, 0x9d, 0x09, 0x1a, 0x3f,
  0x7b, 0x73, 0xbd, 0xbe, 0x6f, 0xc3, 0x03, 0xbf, 0xba, 0x34, 0xc9, 0x3e,
  0x87, 0x8a, 0x2e, 0x3e, 0xdc, 0x43, 0xe5, 0xbd, 0x3f, 0x8a, 0x2e, 0xbe,
  0xe8, 0x79, 0xd4, 0xbe, 0x37, 0x4c, 0x8d, 0xbf, 0x83, 0x2d, 0x00, 0xbf,
  0xf1, 0x99, 0x61, 0xbf, 0x21, 0x32, 0x10, 0xbf, 0x9e, 0x2c, 0xbe, 0x3e,
  0x89, 0x11, 0xd9, 0x3e, 0xa8, 0x98, 0x1f, 0x3f, 0x11, 0x39, 0x76, 0xbf,
  0x6c, 0xe9, 0x14, 0xbe, 0xeb, 0x9b, 0x4f, 0xbe, 0x2d, 0xcf, 0xdc, 0xbd,
  0x9f, 0xf7, 0x41, 0xbe, 0x9b, 0xfa, 0xb1, 0xbe, 0xb4, 0x34, 0x13, 0x3e,
  0xd2, 0x51, 0xe0, 0xbd, 0xc1, 0x73, 0x78, 0xbe, 0xa9, 0xbc, 0x8e, 0x3e,
  0x52, 0xb1, 0x14, 0x3f, 0xfb, 0x5a, 0x17, 0xbe, 0x6f, 0xe2, 0x55, 0xbe,
  0x06, 0x34, 0x63, 0x3e, 0x34, 0xbc, 0x05, 0x3e, 0xc7, 0x8a, 0x02, 0xbf,
  0xa4, 0x3e, 0xa1, 0xbd, 0x6a, 0x50, 0xdf, 0x3e, 0x3c, 0x35, 0x00, 0xbd,
  0x6d, 0xa9, 0xd8, 0x3d, 0x83, 0x49, 0x55, 0xbd, 0xb0, 0x34, 0x54, 0x3e,
  0x77, 0x85, 0xc3, 0x3e, 0x43, 0xc5, 0x3d, 0xbf, 0x0f, 0xa8, 0xa6, 0x3e,
  0x26, 0x27, 0x41, 0x3f, 0x6e, 0x49, 0x0c, 0xbe, 0x76, 0x19, 0x9e, 0x3e,
  0xe3, 0x3f, 0x97, 0xbe, 0x74, 0x37, 0x1c, 0xbe, 0x75, 0xa4, 0xf4, 0x3e,
  0xbe, 0xdc, 0x5f, 0x3f, 0x2f, 0x1c, 0x2b, 0xbf, 0x3c, 0xa6, 0x1a, 0xbf,
  0x1b, 0xe7, 0x09, 0xbe, 0xa8, 0x56, 0x0c, 0xbf, 0xe3, 0x21, 0x48, 0xbe,
  0xfc, 0x72, 0x16, 0xbd, 0xc4, 0x85, 0x19, 0xbf, 0x59, 0x46, 0xf8, 0xbd,
  0x9a, 0x61, 0x9e, 0x3e, 0x1e, 0x16, 0xb9, 0xbe, 0x5a, 0xe0, 0x0a, 0x3f,
  0xe3, 0x7a, 0x6b, 0x3c, 0x30, 0xc6, 0x40, 0x3f, 0x6a, 0x91, 0x11, 0x3f,
  0x38, 0xec, 0x12, 0x3f, 0xd6, 0x87, 0xd4, 0x3e, 0x62, 0x1e, 0xec, 0x3e,
  0xe8, 0xbf, 0x00, 0x3f, 0x54, 0x72, 0x66, 0xbf, 0x92, 0x57, 0xb1, 0xbe,
  0x95, 0x64, 0xf6, 0x3d, 0xb0, 0xcd, 0x48, 0xbe, 0x54, 0x15, 0xad, 0xbe,
  0xf0, 0xdd, 0xd9, 0xbe, 0x2d, 0x30, 0xd5, 0xbe, 0xfe, 0x8a, 0x90, 0xbe,
  0x1b, 0xf5, 0x5c, 0xbd, 0xc4, 0x3a, 0xf8, 0x3d, 0x61, 0x22, 0x2e, 0xbf,
  0x0e, 0xde, 0xab, 0xbe, 0x7f, 0x63, 0xd3, 0x3e, 0x82, 0x72, 0x47, 0x3f,
  0x82, 0x98, 0x79, 0x3c, 0x9a, 0x5c, 0xea, 0x3e, 0x88, 0xa9, 0x8f, 0x3e,
  0x06, 0x8e, 0x42, 0x3d, 0xda, 0x33, 0xf9, 0x3e, 0x10, 0xf0, 0x2e, 0xbf,
  0x07, 0x60, 0x8d, 0xbc, 0x1d, 0xd0, 0xf1, 0xbe, 0x23, 0xa4, 0xe0, 0xbe,
  0x44, 0xe7, 0x75, 0xbd, 0x77, 0x7a, 0x92, 0xbe, 0x5d, 0xe8, 0xf2, 0xbf,
  0x3b, 0xfb, 0x7b, 0x3e, 0xdd, 0x9a, 0xb9, 0x3e, 0xbd, 0x08, 0x92, 0x3e,
  0x84, 0xd7, 0x4f, 0x3e, 0x46, 0xf4, 0x05, 0xbe, 0x5f, 0xb0, 0x03, 0xbf,
  0x60, 0xed, 0x15, 0xbf, 0x0a, 0xe8, 0x06, 0x3e, 0xa3, 0x44, 0xb8, 0x3e,
  0x7f, 0xad, 0x8d, 0x3e, 0x89, 0xc2, 0x4b, 0x3e, 0x4a, 0x31, 0x59, 0x3f,
  0xe9, 0x7b, 0x81, 0xbe, 0xf4, 0x17, 0xb0, 0xbd, 0xf4, 0x04, 0xc9, 0xbe,
  0x19, 0xb1, 0x9e, 0xbe, 0x76, 0xfe, 0x94, 0xbe, 0x81, 0x66, 0xc0, 0x3d,
  0xba, 0x03, 0x30, 0xbf, 0x68, 0x37, 0xb8, 0xbe, 0x79, 0x7d, 0x8f, 0xbe,
  0xd1, 0x14, 0x4b, 0xbf, 0x59, 0xfa, 0x20, 0x3f, 0xb9, 0x04, 0x11, 0x3f,
  0x2f, 0xdf, 0x43, 0x3e, 0x63, 0xcd, 0x19, 0xbd, 0x13, 0xc9, 0xf9, 0xbe,
  0xf7, 0x38, 0x51, 0x3f, 0xf1, 0x23, 0x8f, 0x3f, 0xc5, 0xef, 0x8b, 0xbf,
  0x7d, 0x70, 0x77, 0x3e, 0xc5, 0xb3, 0xcf, 0x3d, 0x22, 0x4f, 0x93, 0xbe,
  0x85, 0x86, 0x2a, 0xbe, 0xcb, 0xfa, 0x0f, 0xbe, 0x0f, 0x57, 0x02, 0xbe,
  0x5b, 0x5b, 0xd5, 0xbd, 0x56, 0x9d, 0x78, 0xbe, 0x5d, 0x23, 0x3c, 0xbe,
  0xff, 0xd9, 0x6c, 0xbe, 0xdf, 0xca, 0xf8, 0xbe, 0x4e, 0xd6, 0xfb, 0x3e,
  0xf8, 0x4b, 0xf3, 0x3d, 0xf3, 0x8b, 0x17, 0xbd, 0x48, 0x10, 0xc2, 0xbd,
  0x76, 0x54, 0xd9, 0xbe, 0xd3, 0xc6, 0x9f, 0xbe, 0xd4, 0xc8, 0xf6, 0xbe,
  0x47, 0x10, 0xa2, 0xbe, 0xf4, 0xe6, 0x37, 0xbd, 0x38, 0x42, 0xc9, 0xbe,
  0x25, 0x2b, 0xbe, 0xbc, 0x34, 0x5e, 0x65, 0xbd, 0xb8, 0xb5, 0x4a, 0x3e,
  0xdb, 0x64, 0x9d, 0x3d, 0x96, 0xf4, 0x44, 0xbe, 0xe6, 0x55, 0xa2, 0x3e,
  0x01, 0xea, 0x00, 0x3e, 0x63, 0x95, 0xd7, 0x3d, 0x80, 0x71, 0xd9, 0x3d,
  0x47, 0x74, 0xf5, 0x3d, 0x20, 0xe5, 0x97, 0x3e, 0x59, 0xab, 0xe3, 0x3e,
  0x52, 0xd2, 0x10, 0xbe, 0xc6, 0xc8, 0x26, 0xbd, 0xcd, 0xdc, 0x9a, 0xbe,
  0xf8, 0xaa, 0xcb, 0xbe, 0x50, 0x0a, 0x4f, 0xbf, 0x5b, 0x9a, 0xf2, 0x3f,
  0xad, 0xfc, 0x6f, 0xbf, 0x8c, 0xc0, 0x75, 0x3f, 0xa0, 0xbb, 0x04, 0x3f,
  0x89, 0x8d, 0x66, 0x3e, 0x01, 0xc5, 0xa4, 0xbe, 0x3d, 0x13, 0xe4, 0xbe,
  0x42, 0x27, 0xa2, 0xbf, 0xb9, 0x0b, 0xb7, 0x3e, 0x39, 0x73, 0x7c, 0x3e,
  0x25, 0xee, 0x5b, 0xbd, 0xaa, 0xfe, 0x86, 0x3e, 0x21, 0x78, 0x84, 0xbe,
  0x0e, 0x3e, 0xad, 0x3c, 0x3a, 0xdc, 0x49, 0xbf, 0x2d, 0x8a, 0xb9, 0x3e,
  0x67, 0x58, 0xa9, 0xbe, 0xe3, 0x50, 0x47, 0xbe, 0xaa, 0x08, 0x1c, 0xbf,
  0x71, 0x5f, 0x94, 0xbe, 0x2c, 0x4b, 0x94, 0xbf, 0xed, 0xfc, 0x1c, 0x3f,
  0x0d, 0x8e, 0x03, 0xbf, 0x69, 0xc3, 0x20, 0x3e, 0x0a, 0x9e, 0xe6, 0xbe,
  0xa0, 0x60, 0x98, 0x3c, 0x05, 0xd8, 0x40, 0xbe, 0xb2, 0x74, 0x29, 0xbf,
  0x3f, 0xf2, 0x0a, 0x3f, 0xf4, 0xa3, 0xe0, 0x3e, 0x04, 0x0a, 0x5c, 0x3e,
  0x3c, 0xcc, 0x83, 0x3c, 0x43, 0x5d, 0x52, 0x3e, 0xd7, 0xf1, 0x13, 0xbe,
  0x7e, 0xb8, 0x1d, 0xbe, 0x24, 0x7e, 0x62, 0x3e, 0x1c, 0xf8, 0x8d, 0x3e,
  0x40, 0xcd, 0xa2, 0xbe, 0xc2, 0xdd, 0x24, 0x3f, 0xb8, 0xe4, 0x2a, 0xbf,
  0x0c, 0xad, 0x2e, 0xbf, 0xb9, 0xf4, 0x9f, 0xbe, 0x9d, 0x44, 0xb3, 0xbe,
  0x65, 0xd5, 0xae, 0xbe, 0x81, 0xb5, 0x56, 0xbf, 0xe6, 0x5c, 0x70, 0x3c,
  0x47, 0x91, 0x1d, 0xbf, 0xbf, 0xe4, 0xc0, 0xbd, 0xce, 0xeb, 0x92, 0x3e,
  0xf3, 0xf4, 0x20, 0xbd, 0x84, 0x1c, 0xd5, 0xbd, 0x12, 0x74, 0xed, 0xbe,
  0x71, 0x08, 0x9c, 0x3f, 0x0b, 0x19, 0x14, 0x3f, 0x89, 0x35, 0x06, 0x3d,
  0x77, 0xf1, 0x1c, 0xbe, 0x7f, 0x14, 0x25, 0x3f, 0xc2, 0x41, 0x93, 0x3f,
  0xea, 0xbb, 0x31, 0xbf, 0x2d, 0x35, 0x7b, 0xbe, 0xd9, 0x1e, 0xce, 0x3d,
  0x1c, 0xeb, 0x22, 0x3f, 0x50, 0x5c, 0xb4, 0xbe, 0x8f, 0x30, 0x52, 0x3f,
  0x32, 0xa4, 0x9a, 0x3f, 0x22, 0x2c, 0x8f, 0x3e, 0x73, 0x02, 0x7a, 0xbe,
  0xed, 0x3f, 0x82, 0xbe, 0xd6, 0x44, 0x3e, 0xbf, 0xb5, 0x90, 0xeb, 0xbe,
  0x64, 0x01, 0xb6, 0xbe, 0x06, 0x07, 0xf4, 0xbe, 0xb2, 0x3c, 0xd7, 0xbe,
  0x74, 0x16, 0x9e, 0xbb, 0x82, 0x0c, 0x43, 0xbe, 0xbf, 0x08, 0x33, 0x3e,
  0xdb, 0xd1, 0x21, 0xbf, 0xb0, 0x2f, 0x3f, 0xbf, 0x82, 0xfc, 0xf8, 0xbd,
  0xff, 0xb4, 0x7a, 0xbe, 0x56, 0x22, 0x4d, 0xbe, 0x01, 0xee, 0x25, 0xbf,
  0x39, 0x31, 0xa8, 0xbf, 0x48, 0xb4, 0x30, 0xbf, 0x69, 0x7f, 0xf0, 0x3e,
  0x3c, 0x74, 0xc7, 0xbd, 0x19, 0xbc, 0x22, 0x3f, 0xc1, 0xc6, 0x59, 0x3d,
  0x72, 0xca, 0xa2, 0xbe, 0x00, 0x55, 0x07, 0xbe, 0xac, 0x4c, 0x09, 0x3e,
  0xa5, 0x93, 0xde, 0x3e, 0x51, 0x68, 0x2d, 0xbd, 0x67, 0x18, 0xf6, 0x3d,
  0x11, 0x89, 0x04, 0x3f, 0x93, 0xde, 0xc1, 0xbe, 0x56, 0xdf, 0xff, 0xff,
  0x04, 0x00, 0x00, 0x00, 0x00, 0x20, 0x00, 0x00, 0x03, 0x3e, 0x19, 0xc0,
  0xb9, 0x7b, 0xae, 0x3e, 0x94, 0x80, 0x49, 0x3f, 0xa9, 0xe0, 0x9c, 0x3e,
  0x06, 0xb6, 0x1b, 0xbf, 0x63, 0x11, 0xbd, 0x3f, 0xcf, 0x48, 0x51, 0xbf,
  0xe9, 0xa5, 0x98, 0xc0, 0xbb, 0x1c, 0xa9, 0x3e, 0x2e, 0xfb, 0xb4, 0xbd,
  0x73, 0xa5, 0x2b, 0xbd, 0xf9, 0xaa, 0x03, 0xc0, 0xa3, 0xd3, 0x0b, 0x3f,
  0xe4, 0xdd, 0xb6, 0x3e, 0x44, 0x03, 0xa3, 0xbf, 0x12, 0xb8, 0x86, 0x3e,
  0x81, 0x52, 0x98, 0xbf, 0xe1, 0x5e, 0xd0, 0xbf, 0xd5, 0xbd, 0x3d, 0x3f,
  0x15, 0xfc, 0x55, 0x3f, 0xd4, 0xc0, 0x92, 0x3e, 0x9d, 0x0b, 0x82, 0xbf,
  0xab, 0xa1, 0x0c, 0x3e, 0xa4, 0xaa, 0x0e, 0x3f, 0x2a, 0x39, 0x66, 0xbe,
  0xf2, 0x01, 0xb4, 0x3e, 0xe7, 0x63, 0x83, 0xbf, 0x4e, 0x8e, 0xb0, 0xbf,
  0xe1, 0xd5, 0x30, 0xbf, 0x4c, 0x6c, 0x81, 0xbf, 0x93, 0x8a, 0xa3, 0xbe,
  0x81, 0x53, 0xac, 0xbd, 0xe9, 0xc8, 0x10, 0xc0, 0x88, 0x9e, 0x01, 0xc0,
  0x0a, 0xad, 0x7b, 0xbf, 0x85, 0x66, 0x09, 0xbe, 0x11, 0x37, 0xc9, 0xbe,
  0x54, 0x17, 0x05, 0x3e, 0xf2, 0xa4, 0x66, 0x3f, 0xbe, 0xb2, 0x11, 0xc0,
  0x48, 0xf6, 0x4a, 0xbe, 0x7b, 0x25, 0x1e, 0xc0, 0xa0, 0xaf, 0x50, 0xbf,
  0x92, 0x27, 0x09, 0x3e, 0xa4, 0xa0, 0xe4, 0x3e, 0xbf, 0xa0, 0xbe, 0x3e,
  0xd4, 0x58, 0x97, 0x3e, 0xb8, 0x23, 0xb0, 0xbf, 0xff, 0x92, 0x94, 0xbf,
  0xa9, 0xf5, 0xeb, 0xbe, 0x9c, 0x67, 0xe8, 0x3e, 0x09, 0xb4, 0x15, 0x3f,
  0xb7, 0x68, 0xa1, 0xbe, 0xfe, 0xd1, 0xd5, 0x3e, 0x46, 0xd9, 0x0e, 0x3f,
  0xc3, 0x83, 0x8d, 0x3d, 0xc9, 0x38, 0x8a, 0xbf, 0x3a, 0xe8, 0x12, 0xbe,
  0x3a, 0x7a, 0x57, 0x3f, 0x1b, 0x15, 0x82, 0x3e, 0x78, 0xe2, 0xde, 0x3e,
  0xf8, 0x95, 0xb3, 0xbe, 0xb7, 0x0d, 0x74, 0xbf, 0x32, 0x87, 0xd4, 0x3e,
  0x8d, 0x1c, 0x31, 0x3f, 0x77, 0x3f, 0xe0, 0x3d, 0x81, 0xc8, 0x0d, 0xbf,
  0xfd, 0xb8, 0x19, 0x3e, 0x28, 0xfa, 0x75, 0xbf, 0x50, 0x00, 0xa0, 0x3f,
  0x32, 0xfc, 0xdb, 0x3e, 0xdf, 0xea, 0x18, 0xbf, 0xe2, 0xed, 0x70, 0x3f,
  0x37, 0x2a, 0x1f, 0x3f, 0x33, 0x11, 0x2c, 0x3f, 0xf9, 0x95, 0x8e, 0xbf,
  0x0e, 0x0c, 0x0e, 0x3f, 0xc8, 0xa3, 0xa5, 0xbf, 0xbe, 0x6f, 0x35, 0x3f,
  0x79, 0x49, 0x52, 0xbc, 0x27, 0x47, 0xa6, 0xbf, 0x6b, 0x90, 0x92, 0x3e,
  0x55, 0x8d, 0xd3, 0x3e, 0xd3, 0xe4, 0xff, 0xbe, 0x84, 0x2d, 0x52, 0xbd,
  0x81, 0x6f, 0x62, 0xbe, 0x4c, 0x6b, 0x32, 0x3e, 0x61, 0x72, 0x82, 0xbf,
  0xc6, 0x9a, 0xa2, 0xbf, 0x61, 0x31, 0xfb, 0xbf, 0xdf, 0x2d, 0x91, 0xbe,
  0xd6, 0xec, 0xfc, 0x3e, 0xb1, 0xff, 0x6a, 0x3f, 0x2e, 0xd1, 0xaa, 0x3e,
  0x2e, 0xc9, 0x0d, 0xbe, 0xa1, 0xeb, 0xbc, 0x3d, 0xe3, 0xc4, 0xd1, 0xbf,
  0x13, 0xe4, 0xb2, 0x3d, 0x6f, 0xe4, 0x35, 0xbe, 0x24, 0x66, 0x13, 0xbd,
  0xe9, 0xc2, 0xe8, 0xbf, 0xa0, 0x1c, 0x24, 0xbd, 0x29, 0x22, 0x81, 0xbf,
  0x1a, 0x72, 0x07, 0x3e, 0xa6, 0xe4, 0x23, 0x3d, 0x03, 0x72, 0x05, 0x3f,
  0x05, 0x96, 0x3e, 0x3f, 0xd5, 0x3e, 0xa6, 0x3f, 0x18, 0x16, 0x3a, 0x3f,
  0x7d, 0xc0, 0x8b, 0x3e, 0x4d, 0x5e, 0xa1, 0x3e, 0xe8, 0xc0, 0x89, 0x3d,
  0x39, 0x4b, 0x17, 0xbf, 0xfb, 0x4a, 0xbf, 0x3f, 0xd8, 0x10, 0x03, 0xbf,
  0xf8, 0x9a, 0xcf, 0x3e, 0xd7, 0x84, 0x13, 0xbe, 0x54, 0xe0, 0xea, 0xbf,
  0xa8, 0x98, 0x59, 0x3e, 0xeb, 0xbb, 0xe5, 0xbf, 0xdd, 0x8a, 0x2f, 0x3f,
  0x6e, 0x62, 0xc7, 0x3d, 0x76, 0xd0, 0x08, 0x40, 0x89, 0xfc, 0xb3, 0x3f,
  0x90, 0x18, 0x95, 0xbe, 0x4f, 0xb0, 0x3f, 0x3f, 0x95, 0x23, 0x0c, 0xbf,
  0x8f, 0x87, 0x9a, 0xbd, 0xf5, 0x6a, 0x0b, 0x3f, 0x83, 0x18, 0xf6, 0xbe,
  0x5b, 0xb3, 0xdb, 0xbe, 0x62, 0xda, 0xf5, 0x3d, 0x59, 0x68, 0x5a, 0xbf,
  0xc5, 0x29, 0x80, 0x3f, 0x38, 0x17, 0xe6, 0x3e, 0xdb, 0xd6, 0x26, 0xbf,
  0x00, 0xf4, 0xf1, 0x3e, 0x65, 0x3d, 0x94, 0x3e, 0xda, 0xf2, 0x24, 0x3f,
  0x47, 0x5d, 0x0f, 0xbf, 0xb8, 0xe0, 0x90, 0x3c, 0x23, 0x86, 0x87, 0xbf,
  0x10, 0x1b, 0x88, 0x3e, 0x3b, 0xa8, 0x92, 0x3e, 0x4f, 0x8c, 0xb7, 0xbf,
  0x2f, 0xb3, 0x25, 0xbd, 0xc9, 0x69, 0xe1, 0x3e, 0xab, 0x91, 0xfd, 0xbd,
  0x80, 0x10, 0xa1, 0x3c, 0xae, 0x4f, 0x09, 0xbe, 0xec, 0x97, 0x09, 0xbd,
  0x7a, 0x8c, 0x59, 0xbf, 0x2e, 0x26, 0x5a, 0xbf, 0x15, 0x8b, 0xd0, 0xbf,
  0x1d, 0x0e, 0x9e, 0xbd, 0x32, 0x35, 0xdd, 0x3e, 0xc1, 0x39, 0x51, 0x3f,
  0x54, 0x76, 0xd0, 0x3e, 0x22, 0x97, 0x41, 0xbd, 0xfc, 0x79, 0x85, 0x3d,
  0xf2, 0xe5, 0x91, 0xbf, 0xda, 0x2a, 0xe8, 0x3c, 0x2a, 0xf9, 0x9e, 0xbe,
  0x86, 0xdc, 0xef, 0x3d, 0x84, 0xef, 0xc6, 0xbf, 0x50, 0xc2, 0x02, 0x3e,
  0x26, 0x50, 0x34, 0xbf, 0x1c, 0xa5, 0x21, 0x3e, 0x80, 0x77, 0x3d, 0xbe,
  0x67, 0x7a, 0x22, 0x3f, 0x6a, 0xe4, 0x9f, 0x3e, 0xea, 0xf0, 0x9b, 0x3f,
  0xf3, 0x95, 0x9a, 0x3e, 0xac, 0x38, 0x8d, 0x3e, 0x99, 0x5b, 0x77, 0x3e,
  0xc9, 0xc2, 0x05, 0x3e, 0x67, 0x45, 0x17, 0xbe, 0xfd, 0xaa, 0x92, 0x3f,
  0xf6, 0x1f, 0x16, 0xbe, 0x57, 0x16, 0xf7, 0x3d, 0x01, 0xca, 0x52, 0x3e,
  0xa8, 0xc6, 0xb0, 0xbf, 0xcb, 0x90, 0x1b, 0x3d, 0xd5, 0x8b, 0xa0, 0xbf,
  0xe4, 0xda, 0x2b, 0x3f, 0x20, 0xad, 0x04, 0xbd, 0x0e, 0xea, 0xfc, 0x3f,
  0xbb, 0x9d, 0x1a, 0x3f, 0x92, 0x19, 0xef, 0xbe, 0xb7, 0xdf, 0x37, 0x3f,
  0x03, 0xa8, 0xe5, 0xbe, 0x6a, 0x7f, 0x7c, 0x3e, 0xe7, 0x4c, 0x6b, 0x3e,
  0x64, 0x3f, 0x58, 0xbf, 0x55, 0x92, 0x45, 0xbf, 0xe6, 0x28, 0xab, 0xbf,
  0x6e, 0x56, 0xca, 0xbf, 0x6a, 0x9b, 0x83, 0xbf, 0xcc, 0x54, 0xbb, 0xbe,
  0x2f, 0xdc, 0x39, 0x3f, 0x5f, 0xf2, 0xcd, 0xbf, 0xb1, 0x23, 0x13, 0x3f,
  0xf7, 0xd6, 0x94, 0x3e, 0xf6, 0x5e, 0xbe, 0x3d, 0x9d, 0xa0, 0x9f, 0xbd,
  0x0e, 0x03, 0x1c, 0xc0, 0xee, 0xc4, 0x7e, 0xbf, 0x46, 0xc1, 0x06, 0xc0,
  0xca, 0xc6, 0x5c, 0xbf, 0x4c, 0xae, 0xd6, 0x3e, 0xc8, 0x57, 0x8d, 0xbf,
  0x63, 0x6c, 0x36, 0xc0, 0xee, 0x5f, 0xda, 0xbf, 0xf6, 0x30, 0x90, 0x3f,
  0x4a, 0x18, 0xe5, 0xbd, 0xb7, 0xf9, 0x36, 0x3f, 0x41, 0x6a, 0xb6, 0x3e,
  0xab, 0x16, 0x68, 0x3c, 0xcc, 0xe6, 0x1f, 0xbd, 0x11, 0xf8, 0x38, 0x3f,
  0x86, 0x0b, 0x93, 0x3e, 0xdb, 0x66, 0xb1, 0x3e, 0xed, 0x92, 0x1b, 0xc0,
  0x0e, 0xce, 0x1a, 0xc0, 0x0c, 0xa3, 0x2a, 0x3f, 0x6d, 0x1e, 0xab, 0x3d,
  0xe9, 0xe2, 0x38, 0xbf, 0x16, 0xfd, 0xe3, 0x3d, 0xde, 0x3f, 0x9e, 0x3e,
  0xe8, 0xd0, 0xce, 0xbd, 0x04, 0xd5, 0x11, 0xc0, 0xe7, 0x7d, 0x82, 0xbf,
  0x96, 0xab, 0x54, 0xbf, 0xe4, 0x47, 0x0d, 0xc0, 0x00, 0xb0, 0xd0, 0x3d,
  0x1c, 0xa5, 0x2d, 0xbe, 0x8e, 0x0e, 0x19, 0x3f, 0x1f, 0xc1, 0x13, 0xbd,
  0x06, 0x81, 0x47, 0xc0, 0xf7, 0x9b, 0xca, 0xbf, 0x02, 0x0c, 0x0b, 0xbf,
  0xac, 0xd2, 0xc9, 0x3e, 0xae, 0xcb, 0x87, 0x3d, 0xcc, 0x28, 0x1c, 0x3f,
  0x82, 0x77, 0xa7, 0x3e, 0x33, 0x4d, 0x00, 0xbf, 0xc0, 0x93, 0xba, 0xbb,
  0xf1, 0xe8, 0x0d, 0xbf, 0x29, 0x45, 0x94, 0x3f, 0x51, 0x36, 0x98, 0xbd,
  0x0b, 0x74, 0x9e, 0xbe, 0xb6, 0x49, 0x08, 0x3f, 0xa1, 0xae, 0x23, 0xbe,
  0xff, 0xa2, 0x94, 0x3e, 0x12, 0xe6, 0x9b, 0x3f, 0xab, 0x5b, 0xb7, 0xbe,
  0x62, 0xc6, 0x0c, 0x3f, 0xf9, 0x56, 0xb2, 0x3d, 0x62, 0xc3, 0x82, 0xbe,
  0x12, 0x5d, 0x90, 0x3e, 0x3d, 0x06, 0x7a, 0xbf, 0x7b, 0x13, 0xc0, 0x3f,
  0x82, 0xdb, 0x94, 0x3e, 0xac, 0x3b, 0xdf, 0xbe, 0xc7, 0x1a, 0x61, 0x3f,
  0x58, 0x60, 0xdc, 0x3e, 0xd1, 0x0f, 0x09, 0x3f, 0x95, 0xc3, 0x82, 0xbf,
  0xb6, 0xdd, 0x87, 0x3e, 0x51, 0x1b, 0xa1, 0xbf, 0xf1, 0x08, 0x31, 0x3f,
  0x34, 0xf0, 0x33, 0x3c, 0x8c, 0x4f, 0xa5, 0xbf, 0x16, 0x73, 0xc8, 0x3d,
  0xf5, 0x34, 0xeb, 0x3e, 0xf9, 0x72, 0x13, 0xbe, 0xd1, 0x19, 0x2c, 0xbe,
  0x72, 0xb9, 0x8d, 0xbe, 0xea, 0x6b, 0x90, 0x3d, 0x6b, 0xe3, 0x8d, 0xbf,
  0xa1, 0x1e, 0x9d, 0xbf, 0xa2, 0x17, 0xe1, 0xbf, 0x60, 0x56, 0x0b, 0xbe,
  0x71, 0x3b, 0x18, 0x3f, 0x57, 0x5b, 0x4c, 0x3f, 0x14, 0x74, 0x04, 0x3f,
  0x08, 0x27, 0x0e, 0xbd, 0x59, 0xac, 0xbe, 0xbd, 0xd3, 0x54, 0xc3, 0xbf,
  0xb3, 0x63, 0x14, 0x3e, 0x42, 0x55, 0xca, 0xbe, 0xea, 0x12, 0xa8, 0x3d,
  0x55, 0xc5, 0xe3, 0xbf, 0x00, 0x38, 0x69, 0x3a, 0x1b, 0x28, 0x83, 0xbf,
  0xcd, 0xc6, 0x27, 0x3c, 0x85, 0xc6, 0x74, 0xbd, 0xcf, 0xbe, 0x04, 0x3f,
  0xca, 0xd1, 0x28, 0x3f, 0xf9, 0x74, 0x9b, 0x3f, 0xbd, 0x15, 0x04, 0x3f,
  0x19, 0xf7, 0x98, 0x3e, 0x29, 0xd6, 0x44, 0x3e, 0xc1, 0x9d, 0xe0, 0xbc,
  0x2e, 0xe6, 0x0d, 0xbf, 0x53, 0xd2, 0x9a, 0x3f, 0xba, 0x0e, 0xd7, 0xbe,
  0x60, 0x5c, 0xb3, 0x3e, 0x3a, 0x34, 0x43, 0x3e, 0x7c, 0xff, 0xdd, 0xbf,
  0xef, 0xd1, 0x6a, 0x3e, 0xee, 0x15, 0xb7, 0xbf, 0xf7, 0x1e, 0x3d, 0x3f,
  0xe3, 0xc2, 0xc1, 0x3e, 0x2b, 0x4b, 0x0c, 0x40, 0x10, 0x1f, 0x8a, 0x3f,
  0xce, 0x37, 0xef, 0xbe, 0x6f, 0xc4, 0x3a, 0x3f, 0xd8, 0x31, 0x06, 0xbf,
  0xa6, 0x90, 0xfa, 0x3d, 0x18, 0x13, 0xc4, 0x3f, 0xee, 0x6d, 0xc7, 0xbe,
  0x50, 0x0f, 0xb6, 0x3f, 0x65, 0x0d, 0x39, 0xbf, 0x9e, 0x3a, 0x57, 0xbf,
  0x45, 0x5a, 0x0b, 0xbe, 0x78, 0x4e, 0xb9, 0x3f, 0x25, 0x14, 0x50, 0x3f,
  0x04, 0x0a, 0x33, 0xbe, 0x0d, 0x8d, 0x72, 0x3d, 0xf0, 0xb4, 0x7f, 0xbf,
  0xaa, 0xbf, 0x21, 0xc0, 0xc8, 0x70, 0xb0, 0x3d, 0x63, 0x6d, 0x96, 0xbf,
  0x84, 0x43, 0x65, 0xbd, 0x62, 0xe5, 0xe2, 0x3e, 0x60, 0xcf, 0x41, 0xbf,
  0xb1, 0x4d, 0x5e, 0x3e, 0xf5, 0x1f, 0x07, 0xbf, 0xd3, 0x3c, 0x97, 0xbc,
  0xed, 0x54, 0x18, 0xc0, 0x8c, 0x28, 0x5a, 0xbf, 0xf3, 0xc6, 0xb0, 0xbf,
  0xf9, 0xb8, 0x67, 0xbf, 0xcf, 0xa7, 0xa0, 0xbe, 0x85, 0xda, 0x23, 0x3f,
  0x08, 0xbe, 0x2e, 0xbf, 0xfe, 0xa7, 0x39, 0xbf, 0x60, 0xba, 0x11, 0xc0,
  0xac, 0x77, 0xbd, 0x3e, 0x38, 0x6a, 0x8b, 0xbe, 0xba, 0x57, 0xf4, 0x3e,
  0x92, 0xbc, 0x67, 0xc0, 0x29, 0x87, 0x47, 0x3f, 0x72, 0x50, 0x22, 0xc0,
  0x3c, 0x95, 0x87, 0x3d, 0x4b, 0x36, 0x5b, 0xbf, 0xd4, 0xae, 0x16, 0xbe,
  0x5c, 0xc1, 0x48, 0xbf, 0x99, 0x22, 0xf1, 0x3e, 0xc6, 0x23, 0xe4, 0x3e,
  0x3e, 0x76, 0xcb, 0x3e, 0xb4, 0x73, 0x1f, 0x3f, 0xfe, 0x53, 0x08, 0xbd,
  0xe0, 0xad, 0xd8, 0x3e, 0x11, 0xc8, 0xc4, 0xbf, 0x04, 0xb7, 0x7e, 0x3e,
  0x31, 0x87, 0x17, 0xc0, 0x6e, 0xc2, 0x02, 0xbf, 0x0e, 0x6d, 0x39, 0x3e,
  0x4a, 0x28, 0xe6, 0x3e, 0xf7, 0xa4, 0x8c, 0xc0, 0x9f, 0x37, 0xa4, 0x3e,
  0xf5, 0x4f, 0x00, 0xbf, 0x6d, 0xdf, 0x84, 0xbe, 0x71, 0x67, 0xa3, 0x3e,
  0xae, 0x9c, 0x81, 0xbe, 0xab, 0x8b, 0x6b, 0xbe, 0xe2, 0x60, 0x48, 0xc0,
  0x14, 0x85, 0x09, 0xc0, 0xec, 0x40, 0xe1, 0x3e, 0x21, 0xe7, 0xb2, 0x3d,
  0x03, 0x24, 0x86, 0xbf, 0xeb, 0xf3, 0x88, 0xbe, 0x5a, 0xd6, 0x08, 0x3e,
  0x57, 0xdb, 0x3c, 0x3e, 0x00, 0x41, 0x70, 0xbe, 0x6e, 0xe3, 0x56, 0xbe,
  0x3b, 0x6d, 0x8c, 0x3d, 0x9c, 0x95, 0x4b, 0xbe, 0x55, 0x50, 0xc4, 0x3d,
  0xbd, 0x08, 0x6f, 0xbe, 0x2b, 0x86, 0x75, 0xbc, 0xb6, 0x10, 0x22, 0xbe,
  0x86, 0xd9, 0x9f, 0xbe, 0x3d, 0x11, 0x8b, 0x3d, 0xa7, 0x01, 0xf0, 0xbd,
  0xa2, 0x6d, 0x1d, 0xbd, 0x5e, 0xe1, 0x27, 0x3d, 0x3a, 0x85, 0x93, 0xbe,
  0xc7, 0xaf, 0x1f, 0xbe, 0xa6, 0x02, 0x0f, 0xbe, 0x36, 0x48, 0xef, 0x3d,
  0xdf, 0xdd, 0x1f, 0xbe, 0x11, 0x13, 0x5c, 0xbe, 0x7d, 0x7f, 0x00, 0xbe,
  0x90, 0x4f, 0x50, 0xbd, 0x6b, 0xb1, 0x06, 0x3e, 0xf0, 0x60, 0x76, 0x3d,
  0x7c, 0xaf, 0x20, 0xbe, 0xfa, 0xf7, 0x81, 0xbe, 0x77, 0x25, 0x22, 0xbe,
  0x3d, 0x15, 0x51, 0xbe, 0x37, 0xc1, 0x13, 0x3e, 0x66, 0x3a, 0x76, 0x3d,
  0x38, 0xf2, 0xb6, 0xbe, 0xb2, 0x13, 0x0d, 0x3e, 0xd5, 0x17, 0xd6, 0x3d,
  0x53, 0x95, 0x5b, 0xbd, 0xb4, 0x4b, 0x03, 0xbd, 0xce, 0xfd, 0xaa, 0x3d,
  0x50, 0x56, 0xaa, 0xbd, 0xd8, 0x76, 0xc1, 0x3d, 0xa7, 0x2e, 0x31, 0x3e,
  0x35, 0xf4, 0x7e, 0xbe, 0x85, 0xd2, 0x9f, 0x3a, 0xa3, 0xb5, 0x2e, 0xbd,
  0xbe, 0x00, 0x87, 0x3c, 0xd0, 0x47, 0x12, 0xbe, 0x9c, 0x3a, 0x81, 0xbe,
  0x6c, 0xec, 0x0a, 0xbe, 0xc4, 0x60, 0xcf, 0xbc, 0x22, 0xc6, 0x05, 0xbe,
  0xe9, 0x06, 0x52, 0xbe, 0x05, 0x3b, 0x10, 0x3e, 0xe0, 0x64, 0xb0, 0xbe,
  0x1b, 0xe0, 0x80, 0xbe, 0xf4, 0xde, 0x3a, 0xbc, 0x00, 0x47, 0x02, 0x3d,
  0x59, 0x32, 0x4f, 0x3e, 0xe7, 0x63, 0x69, 0xbe, 0x68, 0xd4, 0x3e, 0xbd,
  0x58, 0x1c, 0x99, 0x3d, 0x5d, 0x34, 0xa0, 0xbd, 0xa2, 0x28, 0x97, 0x3c,
  0x82, 0x39, 0x2b, 0x3d, 0xd9, 0xb0, 0x9b, 0x3d, 0x56, 0xd5, 0x8e, 0xbe,
  0x11, 0x1e, 0xc6, 0x3d, 0x1b, 0x15, 0x85, 0xbe, 0xed, 0xa1, 0x11, 0xbe,
  0x57, 0x0b, 0xda, 0x3d, 0x9b, 0xcd, 0x94, 0x3d, 0xe1, 0xde, 0x07, 0xbe,
  0x38, 0x7d, 0x1e, 0x3e, 0x66, 0xf0, 0xa6, 0xbd, 0xf2, 0x30, 0xe5, 0xbd,
  0x2e, 0xc2, 0x3f, 0xbe, 0x62, 0x8f, 0x0d, 0x3d, 0x09, 0xbf, 0xb6, 0xbd,
  0xa8, 0xb6, 0x9c, 0xbd, 0xc1, 0xe2, 0xa5, 0xbc, 0x86, 0x0d, 0x28, 0xbe,
  0x40, 0xd4, 0xf9, 0x3d, 0xb2, 0x02, 0x57, 0x3d, 0x66, 0x4b, 0xd1, 0x3d,
  0xbd, 0x55, 0x7b, 0x3d, 0x5b, 0x79, 0x56, 0xbd, 0xc4, 0x66, 0x2c, 0x3e,
  0xaf, 0xea, 0xa2, 0xbe, 0x1d, 0x03, 0xde, 0x3d, 0x57, 0xad, 0x21, 0xbe,
  0x06, 0x9d, 0x22, 0xbe, 0xe5, 0x98, 0x40, 0xbe, 0xba, 0x0e, 0x3a, 0xbe,
  0x8f, 0x39, 0x31, 0xbe, 0x4d, 0xba, 0x80, 0xbe, 0x59, 0x14, 0x80, 0xbe,
  0xe7, 0x1b, 0x16, 0xbe, 0xd2, 0x58, 0x42, 0xbe, 0xec, 0x2c, 0x70, 0xbe,
  0x7a, 0x0d, 0xec, 0x3d, 0x67, 0x75, 0x88, 0x3c, 0xaf, 0xdb, 0x06, 0xbc,
  0x4b, 0x2b, 0x5f, 0xbe, 0xf0, 0xb6, 0xe7, 0xbd, 0x19, 0x27, 0x74, 0xbe,
  0x83, 0xa7, 0x25, 0x3c, 0x92, 0xf3, 0x7d, 0xbe, 0x3d, 0xe2, 0xd3, 0xbd,
  0x77, 0x3e, 0x94, 0xbd, 0x92, 0x12, 0x8a, 0x3d, 0x07, 0x2b, 0x0e, 0xbe,
  0x8f, 0x44, 0x28, 0xbe, 0x58, 0x64, 0x06, 0xbe, 0xe3, 0x04, 0xe2, 0x3d,
  0x7e, 0x07, 0xe2, 0x3c, 0xc9, 0xed, 0x52, 0x3e, 0xec, 0x06, 0x97, 0xbe,
  0xfb, 0xb0, 0x22, 0x3e, 0xde, 0x7c, 0xf3, 0xbd, 0x68, 0xe0, 0x62, 0xbd,
  0xb9, 0x81, 0x16, 0xbe, 0x50, 0x69, 0x1a, 0xbe, 0xe3, 0x48, 0x5b, 0xbe,
  0x38, 0x91, 0x89, 0xbe, 0xb4, 0xe6, 0x72, 0xbe, 0xf5, 0xac, 0x3a, 0x3d,
  0x32, 0x2f, 0xea, 0x3d, 0x3e, 0xc3, 0x3a, 0xbd, 0x0d, 0x2e, 0x24, 0xbe,
  0x03, 0x81, 0x81, 0xbe, 0x9a, 0x47, 0x91, 0xc0, 0xcf, 0xd1, 0x3c, 0xc0,
  0x72, 0x20, 0xc0, 0x3f, 0x3a, 0x43, 0xa8, 0xbd, 0x45, 0x43, 0x4f, 0xbf,
  0xeb, 0xef, 0x01, 0x3e, 0x7a, 0xaf, 0x6a, 0x3f, 0x9d, 0x61, 0x10, 0x40,
  0xa3, 0xde, 0x60, 0x3e, 0xc3, 0x81, 0x01, 0xbf, 0x78, 0x68, 0xf1, 0xbf,
  0x96, 0x23, 0x03, 0x3f, 0x80, 0x8b, 0x8f, 0xbd, 0x36, 0x98, 0x13, 0xbf,
  0xb2, 0xdf, 0x51, 0xbf, 0x38, 0x63, 0xef, 0x38, 0x52, 0xd1, 0xfc, 0xbf,
  0x61, 0xa3, 0x8e, 0xbe, 0xe0, 0x4a, 0xbd, 0x3d, 0x09, 0xe8, 0x45, 0xc0,
  0xda, 0x4b, 0x7e, 0x3d, 0x79, 0x99, 0x22, 0x3f, 0xe8, 0xf5, 0xc2, 0xbf,
  0x61, 0x1d, 0x82, 0xbf, 0xb4, 0xff, 0xbf, 0xbc, 0x4b, 0x4a, 0xa7, 0xbe,
  0x73, 0xb3, 0x3e, 0x3f, 0xc1, 0x90, 0x96, 0xbe, 0xe3, 0x04, 0x50, 0x3e,
  0xe4, 0x47, 0xf2, 0xbf, 0xc8, 0x7f, 0xba, 0x3d, 0xf5, 0x41, 0x0f, 0xbf,
  0x67, 0x6a, 0x36, 0xc0, 0x10, 0xf0, 0x13, 0xc0, 0xeb, 0xfa, 0xfe, 0xbf,
  0x0c, 0x38, 0xb0, 0x3d, 0xc6, 0xb2, 0x57, 0x3f, 0x58, 0x32, 0xc3, 0xbd,
  0xca, 0x8a, 0x6f, 0xbd, 0x8b, 0x35, 0x04, 0x3f, 0x2d, 0x70, 0x1e, 0x3f,
  0xce, 0x4d, 0x13, 0xc0, 0x0b, 0xb0, 0xb3, 0xbe, 0xd2, 0xb8, 0x2a, 0x3f,
  0x76, 0x6b, 0x28, 0x3e, 0x49, 0x6d, 0x5a, 0xbe, 0x21, 0x2e, 0x86, 0x3d,
  0x92, 0xc3, 0x7e, 0xc0, 0xcd, 0x6b, 0x36, 0xc0, 0x65, 0x64, 0x7c, 0xbe,
  0x2f, 0xd7, 0x5d, 0x3e, 0x00, 0x3b, 0x0f, 0xc0, 0x76, 0xf3, 0x73, 0xbe,
  0xea, 0xe2, 0x9d, 0x3d, 0x25, 0x88, 0x48, 0x3f, 0x50, 0xbe, 0x70, 0xbe,
  0x34, 0x4f, 0xdf, 0x3e, 0x5a, 0xf7, 0xaf, 0xbd, 0x9a, 0xc5, 0x6c, 0x3f,
  0xe2, 0x5c, 0xbd, 0xbf, 0x98, 0x83, 0x07, 0x3f, 0x90, 0x80, 0x26, 0xbe,
  0x02, 0x45, 0xf6, 0xbf, 0x28, 0xf0, 0x28, 0xbf, 0x07, 0x78, 0x9c, 0xbd,
  0xc0, 0x30, 0x3e, 0xbe, 0x28, 0x7d, 0x27, 0xbe, 0x58, 0x4c, 0x70, 0xbe,
  0x01, 0x0b, 0x8b, 0xbd, 0x55, 0xf0, 0xa7, 0xbe, 0x55, 0x93, 0x85, 0xbe,
  0x4d, 0x02, 0xa0, 0x3b, 0x18, 0x33, 0x86, 0xbe, 0x40, 0x1f, 0x9b, 0x3d,
  0x1c, 0x65, 0xc9, 0xbd, 0xbe, 0xe2, 0xee, 0x3d, 0x19, 0x91, 0x95, 0xbe,
  0xc4, 0x74, 0xa7, 0xbb, 0x2f, 0xb5, 0x86, 0xbd, 0xed, 0x7f, 0x9a, 0xbe,
  0x33, 0x64, 0xa7, 0xbe, 0x9d, 0x36, 0x86, 0xbd, 0x05, 0x6f, 0xfc, 0xbc,
  0x3d, 0x6e, 0xa6, 0xbe, 0xf4, 0x17, 0xcd, 0x3d, 0x91, 0xfc, 0x7c, 0xbe,
  0x6c, 0x7c, 0xda, 0x3d, 0x4d, 0xeb, 0x25, 0x3e, 0x19, 0xbb, 0xa0, 0xbe,
  0xd6, 0x6d, 0x80, 0xbe, 0x2c, 0x1a, 0x22, 0xbe, 0x0d, 0xf9, 0x79, 0xbe,
  0xa9, 0x02, 0x34, 0x3c, 0x69, 0xfb, 0x85, 0xbe, 0xb0, 0x50, 0xb8, 0x3d,
  0x7e, 0xb3, 0x3b, 0xbe, 0xcd, 0x4f, 0xc7, 0xbd, 0x7b, 0x99, 0x00, 0xbe,
  0xe4, 0xef, 0x11, 0x3c, 0xd0, 0xec, 0xfb, 0xbd, 0x32, 0x6c, 0x31, 0xbd,
  0x10, 0x6a, 0x86, 0x3d, 0xef, 0x04, 0xa4, 0xbd, 0xbb, 0x69, 0x33, 0x3e,
  0xd0, 0x9f, 0xab, 0xbd, 0x11, 0x35, 0x3f, 0xbe, 0x76, 0xf1, 0x0f, 0x3e,
  0x3c, 0x1b, 0x38, 0x3d, 0x84, 0x40, 0x02, 0x3e, 0x7b, 0xac, 0xbe, 0x3d,
  0x99, 0xb7, 0x81, 0xbe, 0x84, 0x02, 0x82, 0xbd, 0x94, 0x07, 0x07, 0xbe,
  0x1b, 0xbe, 0x63, 0xbe, 0x94, 0x44, 0x4a, 0x3d, 0x79, 0x73, 0x14, 0x3e,
  0xc4, 0x7c, 0xaf, 0xbd, 0x49, 0x3f, 0x82, 0xbd, 0x21, 0xc4, 0xff, 0x3c,
  0x77, 0x60, 0x07, 0xbe, 0x79, 0x1e, 0x8e, 0xbd, 0xbe, 0x04, 0xeb, 0x3d,
  0xd3, 0xcd, 0x78, 0xbe, 0x9d, 0x13, 0x25, 0x3b, 0xc2, 0x8b, 0x5a, 0xbe,
  0xf7, 0x65, 0x85, 0xbe, 0xac, 0xf9, 0x97, 0xbe, 0x75, 0xf8, 0x22, 0x3e,
  0x56, 0x05, 0x97, 0x3f, 0xf6, 0x06, 0xaf, 0xbe, 0x6f, 0x4b, 0xde, 0xbe,
  0xce, 0xdd, 0x66, 0xbf, 0x50, 0xb2, 0x62, 0xbe, 0x32, 0x5e, 0x51, 0xbf,
  0x1e, 0x98, 0xd8, 0xbe, 0x95, 0x9b, 0x12, 0x3e, 0xa3, 0xa7, 0x0e, 0xbf,
  0x84, 0x76, 0xbe, 0xbd, 0xdf, 0x36, 0xc4, 0xbf, 0xbe, 0xd1, 0xa2, 0xbf,
  0x58, 0x10, 0xf1, 0xbe, 0x71, 0x52, 0x08, 0xc0, 0x25, 0xfc, 0x73, 0x3f,
  0x42, 0x89, 0x28, 0x3e, 0x2d, 0x03, 0xcb, 0xbe, 0x7f, 0x38, 0xd1, 0x3e,
  0xa6, 0x03, 0xe0, 0xbf, 0x91, 0x57, 0x13, 0x3f, 0x38, 0x59, 0x3e, 0x3e,
  0xe7, 0xa4, 0x6d, 0x3e, 0x7b, 0xa3, 0x08, 0x3f, 0x73, 0x1c, 0x76, 0x3e,
  0x45, 0xcc, 0x08, 0x3f, 0xb0, 0xf1, 0xd8, 0xbe, 0x15, 0x97, 0x72, 0x3d,
  0x0d, 0xae, 0x49, 0x3e, 0xca, 0x2a, 0x31, 0x3e, 0x81, 0xad, 0xd2, 0x3d,
  0xf1, 0xd1, 0xb6, 0xbe, 0xaf, 0x4d, 0x7d, 0xbe, 0x7d, 0x96, 0x47, 0xbe,
  0xd4, 0xea, 0xce, 0x3e, 0x21, 0xa6, 0x8c, 0xbd, 0x02, 0x7c, 0xe2, 0xbe,
  0x2b, 0x71, 0x4d, 0x3f, 0xf8, 0x0a, 0xf6, 0xbd, 0x09, 0xb5, 0x97, 0xbf,
  0xe4, 0x93, 0x92, 0xbf, 0x5b, 0x2a, 0x93, 0x3e, 0x6a, 0x3a, 0x38, 0xbf,
  0x36, 0xca, 0x26, 0xbf, 0xda, 0xa4, 0x7f, 0x3f, 0xc2, 0x0a, 0x16, 0xbe,
  0x27, 0x12, 0x43, 0xbe, 0x3d, 0x04, 0xe3, 0x3e, 0x8d, 0xb5, 0x99, 0x3f,
  0x95, 0xd4, 0xa3, 0xbf, 0x9d, 0xba, 0x63, 0x3e, 0xfa, 0xff, 0x8c, 0xbf,
  0x32, 0x33, 0x2a, 0x3c, 0x4c, 0xce, 0x94, 0x3d, 0x5d, 0x72, 0xb2, 0xbf,
  0x43, 0xd3, 0x9c, 0x3f, 0x2c, 0x10, 0xfc, 0xbe, 0x27, 0xdc, 0x18, 0x3f,
  0x45, 0xe2, 0x2b, 0x3f, 0x49, 0xae, 0x87, 0xbe, 0xce, 0x0d, 0xd6, 0xbf,
  0xef, 0x6a, 0xa5, 0x3d, 0xa5, 0xb1, 0x92, 0xbf, 0xbc, 0x92, 0x8b, 0x3d,
  0xb4, 0x07, 0x1b, 0x3f, 0x06, 0x30, 0x61, 0xbe, 0x5c, 0xef, 0x6b, 0xbd,
  0x0b, 0xf5, 0xe2, 0xbc, 0xf4, 0x25, 0x8e, 0xbd, 0x70, 0x8f, 0x55, 0xbe,
  0x0c, 0xf5, 0xf5, 0xbb, 0xea, 0x91, 0x01, 0xbd, 0x3c, 0xa3, 0xb0, 0xbd,
  0xb6, 0xcf, 0xf9, 0xbd, 0x06, 0x13, 0xae, 0xbc, 0xae, 0x47, 0x99, 0xbd,
  0x1f, 0x99, 0x91, 0xbe, 0x79, 0x0a, 0xb1, 0x3d, 0x7b, 0x9d, 0x95, 0x3d,
  0x5e, 0x3c, 0x80, 0x3d, 0x86, 0xdb, 0x4a, 0xbe, 0x7f, 0x54, 0x81, 0x3d,
  0xd1, 0xc1, 0x31, 0xba, 0x04, 0x3c, 0x32, 0xbe, 0x5e, 0x81, 0xa3, 0xbe,
  0x89, 0x8c, 0x74, 0xbd, 0x50, 0x28, 0x99, 0xbe, 0x0f, 0x67, 0x4f, 0x3d,
  0xb3, 0x02, 0x69, 0xbe, 0x8d, 0x77, 0xbb, 0x3c, 0xf6, 0x87, 0xea, 0xbd,
  0x22, 0x75, 0x39, 0xbe, 0x63, 0xdf, 0xec, 0xbd, 0x87, 0x78, 0x8d, 0xbe,
  0xcd, 0xf1, 0x0e, 0xbd, 0x80, 0x14, 0xd2, 0x3a, 0xa7, 0xb2, 0xcd, 0xbd,
  0xa9, 0x64, 0xb9, 0xbd, 0xbb, 0x04, 0x29, 0x3c, 0xa9, 0x77, 0x18, 0xbe,
  0xb4, 0xf2, 0x56, 0x3c, 0x70, 0x70, 0x02, 0x3e, 0xe0, 0xb7, 0x2c, 0xbe,
  0x7f, 0x0b, 0x81, 0x3c, 0xd5, 0xa9, 0xad, 0xbd, 0x45, 0xa8, 0xd2, 0x3b,
  0xe6, 0xaf, 0x7e, 0xbe, 0x09, 0x10, 0x3f, 0xbe, 0x15, 0x47, 0xea, 0xbd,
  0xfa, 0x81, 0xb0, 0xbd, 0x48, 0x39, 0xd0, 0x3c, 0x17, 0x2d, 0x51, 0xbe,
  0xc9, 0x0f, 0x05, 0x3e, 0x96, 0x83, 0xdc, 0x3d, 0x9d, 0x75, 0x04, 0x3e,
  0xd7, 0x84, 0x97, 0xbd, 0xe6, 0x0b, 0xda, 0xbd, 0xc6, 0x95, 0x5f, 0xbe,
  0x49, 0x5c, 0x96, 0xbe, 0x6b, 0x64, 0x74, 0xbc, 0x95, 0x81, 0x11, 0x3e,
  0x7f, 0xfa, 0x05, 0xbe, 0x37, 0x25, 0x8f, 0xbe, 0xf8, 0x57, 0x80, 0x3c,
  0x34, 0x03, 0xc4, 0x3b, 0x2e, 0x5e, 0x77, 0x3d, 0x89, 0x31, 0x98, 0xbe,
  0x74, 0xd2, 0x8b, 0xbe, 0x54, 0x5a, 0xf0, 0x3d, 0x13, 0xe9, 0x79, 0xbf,
  0x2d, 0x5e, 0x65, 0x3f, 0x0f, 0x0a, 0x3e, 0xc0, 0x95, 0x5b, 0x27, 0xbf,
  0x8a, 0x92, 0x99, 0xbe, 0x44, 0xbf, 0x9b, 0x3f, 0xb1, 0x3e, 0xf3, 0xbf,
  0xd8, 0x0f, 0x31, 0x3e, 0xcc, 0x6e, 0xa4, 0xbe, 0xa6, 0xce, 0x8e, 0x3e,
  0x3d, 0xc1, 0xb2, 0xbe, 0x26, 0x08, 0x7c, 0xbe, 0x7d, 0xaa, 0x12, 0x3f,
  0x31, 0xab, 0xd6, 0x3e, 0x7e, 0xb9, 0x04, 0xc0, 0x26, 0x9c, 0x34, 0xbe,
  0xd2, 0x45, 0x2c, 0xbe, 0x26, 0x0b, 0xb8, 0xbe, 0x11, 0xea, 0x52, 0x3f,
  0x04, 0xdb, 0x1a, 0x3f, 0x87, 0xd0, 0x02, 0xc0, 0x96, 0xd4, 0xec, 0xbf,
  0xc9, 0x10, 0xf8, 0xbf, 0x01, 0xa9, 0x29, 0x3f, 0xda, 0x93, 0xb9, 0xbf,
  0x58, 0xc1, 0x6f, 0xbd, 0xe9, 0x8f, 0x4d, 0xbf, 0x43, 0xe2, 0xe5, 0xbc,
  0x30, 0xac, 0x38, 0xbc, 0x4c, 0x2c, 0xa6, 0xbf, 0x48, 0x95, 0x5a, 0xbf,
  0x9c, 0x36, 0x26, 0xbf, 0x23, 0x3f, 0x57, 0xbf, 0x88, 0x6b, 0xc0, 0xbf,
  0x02, 0xb5, 0xac, 0x3d, 0xe5, 0x2a, 0xec, 0x3d, 0x9b, 0x36, 0xbd, 0x3e,
  0xb0, 0xc0, 0x07, 0xbe, 0x83, 0x3c, 0x15, 0xbe, 0x9c, 0x0f, 0x04, 0xc0,
  0x8c, 0x96, 0x8a, 0x3e, 0x46, 0x2c, 0x0b, 0xc0, 0x1e, 0x04, 0x1c, 0x3f,
  0x93, 0x38, 0x90, 0xbf, 0x33, 0xd7, 0x60, 0x3e, 0xe8, 0xf2, 0xbe, 0xbe,
  0x73, 0xd0, 0x45, 0x3f, 0x44, 0x66, 0x3f, 0x3e, 0x98, 0xec, 0xa4, 0xbe,
  0x62, 0x09, 0x14, 0xbf, 0xb1, 0xfe, 0xd6, 0xbd, 0xfd, 0x39, 0x03, 0xc0,
  0x5d, 0x69, 0xff, 0x3e, 0x3a, 0x6f, 0xd8, 0x3e, 0x15, 0x1f, 0x8d, 0x3e,
  0xaa, 0x36, 0x96, 0xbf, 0x69, 0x31, 0x38, 0xbe, 0x15, 0xb9, 0x45, 0x3e,
  0xb7, 0x9c, 0x40, 0xbf, 0x16, 0xcc, 0x40, 0xbf, 0xee, 0x22, 0xea, 0x3e,
  0xb2, 0xf4, 0x58, 0x3f, 0x2b, 0x26, 0x6e, 0x3f, 0x6e, 0x23, 0x32, 0xbc,
  0x19, 0xae, 0x41, 0x3f, 0x5f, 0x5e, 0xc4, 0xbe, 0xeb, 0xec, 0x1c, 0xbf,
  0x50, 0x31, 0x58, 0x3e, 0xde, 0xfd, 0x63, 0xbf, 0xdb, 0x4d, 0xfa, 0x3f,
  0xfc, 0xf8, 0xad, 0x3e, 0x7b, 0xd9, 0x2a, 0xbf, 0x29, 0xc5, 0x1c, 0x3f,
  0x77, 0xc4, 0x01, 0x3f, 0x02, 0xc9, 0xe2, 0x3e, 0x98, 0x4c, 0x83, 0xbf,
  0x20, 0x90, 0x72, 0x3e, 0x90, 0xe9, 0xa1, 0xbf, 0x47, 0x6c, 0x50, 0x3f,
  0x49, 0xbd, 0xeb, 0x3d, 0x27, 0x4e, 0x81, 0xbf, 0xa0, 0xe5, 0x10, 0x3e,
  0xb0, 0xf4, 0x13, 0x3e, 0xb9, 0x47, 0x90, 0xbf, 0xca, 0xec, 0x1c, 0x3d,
  0xd2, 0xd3, 0xa0, 0xbe, 0x1d, 0x17, 0x42, 0xbd, 0xf8, 0x05, 0x8b, 0xbf,
  0xa0, 0xae, 0x52, 0xbf, 0x2c, 0x1b, 0xf5, 0xbf, 0x09, 0x91, 0x9b, 0xbe,
  0x00, 0xd1, 0xf8, 0x3e, 0x12, 0x0f, 0x55, 0x3f, 0x5d, 0x96, 0xd4, 0x3e,
  0xd9, 0x3a, 0x88, 0xbe, 0xaf, 0xf2, 0xa3, 0x3e, 0x2a, 0x76, 0xac, 0xbf,
  0x58, 0x0b, 0xdf, 0x3d, 0xef, 0x89, 0x8f, 0xbc, 0x52, 0xda, 0x11, 0xbe,
  0x08, 0x7c, 0xde, 0xbf, 0x88, 0x8a, 0xb4, 0xbd, 0x2e, 0xb1, 0x27, 0xbf,
  0x39, 0xe6, 0x2c, 0xbe, 0xd2, 0xfa, 0x54, 0xbe, 0xee, 0xfd, 0x0b, 0xbf,
  0x22, 0xfe, 0x07, 0x3f, 0xfa, 0xb6, 0x9d, 0x3f, 0xaf, 0xca, 0x00, 0x3f,
  0xf3, 0x52, 0x5e, 0x3e, 0xb8, 0xc6, 0x66, 0x3d, 0x6e, 0xd7, 0x50, 0xbc,
  0x9a, 0xcb, 0x61, 0xbf, 0x1e, 0xbe, 0x88, 0x3f, 0x8a, 0xe1, 0x2f, 0x3e,
  0xb7, 0x69, 0x8b, 0x3e, 0x7a, 0x87, 0x55, 0x3e, 0x16, 0xca, 0xec, 0xbf,
  0xcc, 0x3e, 0x3c, 0x3e, 0x62, 0x5b, 0xe3, 0xbf, 0x57, 0xb0, 0x3c, 0x3f,
  0x7d, 0x87, 0x98, 0x3e, 0xa4, 0x9c, 0x00, 0x40, 0x49, 0x34, 0x58, 0x3f,
  0x3c, 0xde, 0xc0, 0xbe, 0x3a, 0x19, 0x5a, 0x3f, 0xb1, 0x32, 0x1d, 0xbf,
  0xdd, 0x10, 0x13, 0xbe, 0x0f, 0x05, 0x41, 0xbc, 0x2b, 0x04, 0x6d, 0xbe,
  0xe8, 0x60, 0x6c, 0xbd, 0xd7, 0x0f, 0x06, 0xbc, 0xaa, 0x1b, 0xa9, 0xbe,
  0x0e, 0x1f, 0x9b, 0xbe, 0x5f, 0xb8, 0xab, 0x3d, 0x02, 0xce, 0xb4, 0xbe,
  0x68, 0x7a, 0x4f, 0xbe, 0xbc, 0x52, 0x86, 0x3d, 0x7f, 0xeb, 0x34, 0x3c,
  0xae, 0x94, 0x92, 0xbc, 0x30, 0xbe, 0x15, 0xbe, 0xd3, 0x96, 0xab, 0xbd,
  0x94, 0xa6, 0xe3, 0x3d, 0x38, 0x0d, 0x7f, 0xbe, 0x17, 0x3d, 0x90, 0xbe,
  0x6d, 0x25, 0xd8, 0xbd, 0x4d, 0x74, 0x17, 0x3d, 0x94, 0x1f, 0x93, 0x3d,
  0x21, 0x32, 0x35, 0x3d, 0xd0, 0x7c, 0x98, 0xbe, 0x1d, 0x88, 0x1d, 0xbe,
  0xdb, 0x9c, 0x5a, 0xbd, 0xbd, 0xb5, 0x71, 0xbe, 0x94, 0x49, 0xe9, 0xbc,
  0xb9, 0x61, 0x93, 0x3d, 0x2c, 0x6f, 0x86, 0xbe, 0xd1, 0xf6, 0xf3, 0x3c,
  0x0c, 0x30, 0x75, 0xbc, 0x15, 0x4d, 0x96, 0xbd, 0xcd, 0x84, 0xf7, 0xbd,
  0xf1, 0x17, 0xe1, 0x3d, 0x89, 0x4c, 0x3e, 0xbe, 0x10, 0xec, 0xff, 0xbd,
  0x80, 0x5e, 0xa2, 0xbd, 0x49, 0xa2, 0xea, 0xbb, 0x18, 0x48, 0xa8, 0xbd,
  0x47, 0x05, 0x79, 0xbe, 0x9b, 0xee, 0x16, 0xbe, 0x9c, 0xcb, 0x2f, 0x3d,
  0x8e, 0x4c, 0xf8, 0x3d, 0x83, 0x0f, 0x31, 0xbe, 0xde, 0xed, 0x0b, 0xbe,
  0x26, 0x8d, 0xec, 0x3d, 0x1d, 0x5f, 0x66, 0xbe, 0x54, 0xeb, 0x0e, 0xbe,
  0xbb, 0x1d, 0xdf, 0xbd, 0xd5, 0xb2, 0x4f, 0xbd, 0x32, 0x7d, 0x9b, 0xbe,
  0xa0, 0xa6, 0xc2, 0x3a, 0xb6, 0x1b, 0x2f, 0x3e, 0xba, 0xc5, 0xac, 0xbd,
  0x5f, 0x18, 0x91, 0xbc, 0x12, 0xa7, 0x1d, 0x3e, 0xab, 0x57, 0xb0, 0xbd,
  0x5d, 0xf8, 0x39, 0x3e, 0xef, 0x8f, 0x78, 0xbe, 0x3b, 0xf8, 0x36, 0xbd,
  0x35, 0x01, 0xd4, 0xbd, 0xcf, 0x22, 0xa8, 0xbe, 0x61, 0x10, 0x06, 0x3e,
  0x9e, 0x1b, 0xfe, 0x3d, 0x1e, 0x6c, 0xe0, 0x3d, 0x0d, 0x7e, 0xa9, 0xbf,
  0x64, 0x9b, 0x30, 0xbf, 0x67, 0xb3, 0x55, 0xbd, 0xbe, 0xf2, 0x80, 0x3d,
  0xcf, 0xc4, 0x41, 0xc0, 0xc3, 0x36, 0x0f, 0x3e, 0x48, 0xcf, 0xc8, 0x3e,
  0x23, 0x7e, 0xed, 0xbe, 0x20, 0x45, 0x64, 0xbd, 0x24, 0xb1, 0x95, 0xbe,
  0x0a, 0x8a, 0xad, 0xbf, 0x21, 0x45, 0x55, 0xbf, 0x3c, 0x02, 0xf0, 0xbe,
  0x27, 0xc0, 0x18, 0x3e, 0x8d, 0x65, 0xd8, 0x3e, 0xb2, 0x96, 0x6b, 0x3e,
  0xc0, 0x9a, 0xc5, 0xbf, 0xdd, 0x90, 0x0c, 0x3f, 0x4b, 0x15, 0xee, 0x3e,
  0x79, 0x13, 0xc5, 0xbf, 0x8a, 0x52, 0xab, 0xbf, 0x66, 0x55, 0x6b, 0x3e,
  0xd3, 0x24, 0x83, 0x3f, 0xac, 0x87, 0xd8, 0xbe, 0x23, 0x9b, 0x1b, 0x3d,
  0xf5, 0xe4, 0x3b, 0x3e, 0x19, 0xac, 0x60, 0x3d, 0x12, 0x4c, 0xac, 0xbf,
  0xb5, 0x9c, 0x48, 0x3f, 0x9d, 0xd2, 0x2e, 0xc0, 0x12, 0xec, 0x06, 0x3e,
  0xa4, 0x02, 0xbc, 0xbe, 0xb7, 0x8d, 0xbc, 0x3e, 0x4a, 0x3b, 0x59, 0xbf,
  0x92, 0x30, 0xd7, 0x3e, 0xf8, 0xc6, 0x11, 0x3e, 0xf9, 0x67, 0xd6, 0xbf,
  0x28, 0xb8, 0x0e, 0xbe, 0x49, 0xbf, 0xa3, 0xbe, 0x86, 0x80, 0xa8, 0x3e,
  0x49, 0x1e, 0x58, 0x3f, 0x79, 0xce, 0x9b, 0xbf, 0xed, 0xd8, 0x12, 0xbf,
  0x01, 0xe7, 0x75, 0x3f, 0xa2, 0x48, 0xf8, 0x3c, 0xdb, 0x49, 0xd5, 0xbe,
  0xa1, 0xc7, 0x47, 0xc0, 0xdc, 0xa4, 0x74, 0xc0, 0x2f, 0xfa, 0xeb, 0xbf,
  0xa3, 0x87, 0x5a, 0xbe, 0xab, 0x83, 0x93, 0x3e, 0x14, 0x2f, 0x4b, 0xbf,
  0xc9, 0x1d, 0x52, 0xbd, 0x9a, 0x48, 0xb6, 0x3e, 0x9f, 0x66, 0x1e, 0x3d,
  0x55, 0x0b, 0x05, 0x3f, 0xf9, 0x57, 0xd1, 0xbe, 0xe1, 0x17, 0x33, 0xbe,
  0x69, 0x98, 0xeb, 0xbe, 0xfa, 0x95, 0x32, 0x3f, 0x1e, 0x02, 0xd1, 0xbd,
  0xc0, 0x7a, 0x81, 0xbf, 0x67, 0x61, 0xe4, 0xbf, 0x0f, 0x15, 0xe5, 0x3e,
  0xfb, 0x43, 0x36, 0x3c, 0x61, 0x5d, 0xc1, 0x3d, 0xe8, 0x0d, 0x9d, 0xbe,
  0x50, 0x7b, 0x6f, 0xbe, 0x1c, 0xa4, 0xfc, 0xbd, 0xd3, 0x24, 0x2b, 0xbe,
  0x90, 0xc0, 0x92, 0xbd, 0xb4, 0xa2, 0x92, 0xbe, 0x24, 0x18, 0x9c, 0xbd,
  0x06, 0x58, 0xf0, 0xbd, 0xbc, 0x7e, 0x04, 0xbe, 0xff, 0x0c, 0x93, 0xbe,
  0xfd, 0xe6, 0x04, 0x3d, 0xdc, 0xbf, 0xc8, 0xbd, 0x30, 0x5b, 0x5e, 0xbe,
  0xc3, 0x8f, 0x3d, 0xbe, 0x84, 0x9b, 0x8d, 0xbe, 0x71, 0xbb, 0x7b, 0xbd,
  0x28, 0x6a, 0xd9, 0xbd, 0x2d, 0xad, 0x4f, 0xbe, 0x87, 0xb9, 0x87, 0xbe,
  0x80, 0xfa, 0xf2, 0xbc, 0xc6, 0xe7, 0x2d, 0x3d, 0xc4, 0xab, 0x1c, 0xbd,
  0xe5, 0x28, 0x44, 0xbe, 0xa7, 0x66, 0x10, 0xbe, 0x6d, 0x85, 0x1e, 0x3e,
  0xbf, 0xdd, 0x83, 0x3d, 0xf4, 0x81, 0x16, 0x3d, 0x5f, 0xde, 0x8a, 0xbe,
  0x6e, 0xce, 0x92, 0xbe, 0xb4, 0x6d, 0x6b, 0xbe, 0xdc, 0x06, 0x1f, 0x3c,
  0xd1, 0xfb, 0x3d, 0x3d, 0x95, 0x9d, 0xa3, 0xbe, 0x8e, 0x5c, 0x8d, 0x3d,
  0x2e, 0x8b, 0x44, 0xbe, 0xd8, 0xd5, 0xf3, 0x3d, 0x48, 0xe8, 0x32, 0xbd,
  0x61, 0xf8, 0x03, 0xbe, 0x4b, 0xd4, 0x87, 0xbd, 0x10, 0x71, 0xb6, 0x3d,
  0xd4, 0x2c, 0x8b, 0xbe, 0xc4, 0xeb, 0x59, 0x3e, 0xce, 0x34, 0x3f, 0x3d,
  0x8d, 0xa5, 0x60, 0x3d, 0x17, 0x29, 0xc6, 0x3d, 0x9e, 0x9a, 0x73, 0x3d,
  0xa7, 0x74, 0x9a, 0xbe, 0x3a, 0xeb, 0x91, 0xbb, 0xea, 0xcb, 0x92, 0xbd,
  0x80, 0xc1, 0x04, 0x3d, 0x6f, 0x82, 0x0e, 0x3d, 0x0d, 0x18, 0x60, 0xbe,
  0xe4, 0x89, 0x61, 0x3d, 0x51, 0xfb, 0x9c, 0xbd, 0x57, 0x92, 0x0a, 0x3e,
  0xc0, 0x74, 0x20, 0xbe, 0x37, 0xe0, 0x1b, 0xbe, 0x12, 0x4e, 0xd4, 0xbd,
  0xf8, 0x4c, 0x23, 0xbe, 0x1d, 0xf7, 0x84, 0xbe, 0x09, 0x37, 0x70, 0xbe,
  0xcf, 0xd5, 0x85, 0x3d, 0x61, 0x88, 0xb6, 0x3e, 0x54, 0x43, 0x1f, 0xbf,
  0x62, 0x1a, 0x62, 0x3f, 0x64, 0xe2, 0x2b, 0xc0, 0x93, 0x51, 0xd6, 0xbe,
  0x02, 0x00, 0xac, 0x3e, 0xdd, 0xdc, 0x7c, 0x3e, 0xb1, 0xe7, 0xb2, 0x3f,
  0x44, 0x91, 0x38, 0x3f, 0xf9, 0x93, 0x02, 0x3f, 0x1f, 0xd2, 0x19, 0xbf,
  0x4c, 0xbc, 0xe6, 0x3e, 0x39, 0x18, 0x8e, 0x3d, 0x2a, 0xd6, 0xcd, 0xbe,
  0xda, 0xbf, 0x2d, 0xbf, 0x43, 0x9e, 0x45, 0xc0, 0xca, 0x07, 0xbd, 0x3f,
  0xe9, 0xda, 0x64, 0x3f, 0xb0, 0x77, 0xc3, 0xbf, 0xee, 0xfd, 0x53, 0xbf,
  0x0b, 0x4d, 0xc0, 0xbf, 0x73, 0x84, 0x85, 0x3d, 0xec, 0x97, 0x6b, 0xbf,
  0x62, 0x58, 0x11, 0x3f, 0xc7, 0x1f, 0x79, 0xbc, 0xe6, 0xaa, 0xf2, 0x3e,
  0xe3, 0xc9, 0x2b, 0x3f, 0x1e, 0x71, 0x64, 0x3e, 0xb4, 0xd5, 0xfd, 0xbe,
  0x59, 0xaf, 0x81, 0x3e, 0x46, 0x59, 0x1d, 0xc0, 0x83, 0x96, 0x66, 0xbf,
  0xf8, 0xff, 0x91, 0xbd, 0xcb, 0xc5, 0x08, 0x3d, 0xc8, 0xf3, 0xe1, 0x3e,
  0x20, 0xda, 0x5a, 0xbe, 0xf1, 0x16, 0x4a, 0xbd, 0x38, 0xdd, 0x0a, 0xbe,
  0x7c, 0x06, 0x83, 0xc0, 0x8f, 0x29, 0x7a, 0xbe, 0xb1, 0xea, 0xd6, 0x3e,
  0xaf, 0x23, 0xaf, 0xbf, 0xfa, 0x86, 0x03, 0x3d, 0x37, 0x60, 0xff, 0xbd,
  0xa0, 0xfe, 0xdf, 0x3d, 0x09, 0x0a, 0x57, 0x3e, 0x74, 0x14, 0xe9, 0xbe,
  0xdb, 0xcb, 0x94, 0xbf, 0xa3, 0x25, 0x52, 0xbf, 0xc2, 0x1d, 0xa4, 0x3e,
  0x76, 0x70, 0xf9, 0x3d, 0xfe, 0x60, 0x99, 0xbe, 0x5e, 0xa9, 0x70, 0x3c,
  0x6d, 0xa1, 0x28, 0xbe, 0x91, 0xde, 0x24, 0xbf, 0xaf, 0x40, 0xb7, 0xbe,
  0x13, 0xe4, 0x7f, 0x3f, 0x25, 0x91, 0x26, 0x3e, 0xf8, 0x20, 0x10, 0x3f,
  0xb4, 0x43, 0x2b, 0xbf, 0x01, 0x6f, 0x87, 0xbe, 0x7a, 0xee, 0x04, 0x3f,
  0x18, 0x0e, 0x28, 0x3f, 0xfa, 0xd1, 0x89, 0x3e, 0x62, 0x2e, 0xeb, 0xbf,
  0xeb, 0x42, 0x03, 0x3f, 0x5e, 0x30, 0xb4, 0xbf, 0x90, 0x75, 0x64, 0x3e,
  0x5f, 0x80, 0x01, 0xc0, 0xf8, 0x6c, 0xe2, 0xbf, 0xe3, 0xe7, 0xc7, 0x3f,
  0x3d, 0xdf, 0x75, 0xbf, 0xf9, 0xd5, 0xe7, 0xbe, 0x4b, 0x7c, 0x70, 0x3e,
  0xdf, 0xb5, 0x95, 0xbe, 0xd0, 0x2c, 0x1d, 0xbf, 0xdf, 0x2e, 0x35, 0xbf,
  0xfa, 0x41, 0x66, 0x3e, 0x00, 0x41, 0xf7, 0x3e, 0x39, 0x67, 0xf8, 0x3e,
  0x68, 0x81, 0x59, 0xc0, 0x48, 0xdb, 0x4f, 0xbf, 0xa9, 0x0d, 0xd5, 0x3d,
  0x85, 0x8f, 0x8d, 0x3e, 0xf0, 0xcd, 0xcc, 0xbe, 0xc8, 0x42, 0x39, 0xbf,
  0xbf, 0x0b, 0xcf, 0xbd, 0x41, 0x3e, 0x83, 0xbd, 0x01, 0xf0, 0xf4, 0x3b,
  0xd1, 0xf1, 0x5b, 0x3f, 0x5e, 0x64, 0x37, 0xbf, 0x16, 0x9e, 0x0d, 0xc0,
  0x67, 0x75, 0x66, 0xbe, 0x16, 0x59, 0xa0, 0xbe, 0xf9, 0x96, 0x8c, 0xbc,
  0x00, 0xb0, 0x82, 0x3e, 0x07, 0x11, 0x10, 0x3f, 0x93, 0xb3, 0xc8, 0xbf,
  0x46, 0xb2, 0x34, 0x3e, 0xc3, 0x8f, 0x14, 0x3e, 0x82, 0xf9, 0x88, 0xbe,
  0x88, 0xd5, 0x68, 0x3e, 0xa2, 0x61, 0x6c, 0x3f, 0xf3, 0x8f, 0x8f, 0x3f,
  0x74, 0x17, 0xaa, 0x3d, 0x01, 0xe0, 0x53, 0xbf, 0xc6, 0x5d, 0x9a, 0xbe,
  0x8b, 0xe7, 0xc8, 0x3e, 0xd2, 0xa3, 0x4a, 0x3e, 0x4a, 0xc5, 0xdb, 0x3d,
  0x1c, 0x65, 0x99, 0xbf, 0x9a, 0xc8, 0x7a, 0xbf, 0x4e, 0x97, 0x9d, 0xbf,
  0x35, 0x6a, 0x3c, 0x3e, 0xb6, 0x59, 0x24, 0xbf, 0xd7, 0x4f, 0xbd, 0xbf,
  0x5a, 0xb0, 0xcc, 0x3d, 0xdc, 0xc8, 0x3f, 0xbd, 0x2e, 0x94, 0x07, 0xbe,
  0xa1, 0x73, 0xdd, 0x3e, 0x80, 0xa1, 0x45, 0xbf, 0xaa, 0x24, 0xa8, 0x3a,
  0x8d, 0x45, 0x90, 0x3f, 0x73, 0x91, 0x59, 0x3e, 0xb2, 0x45, 0x3e, 0x3f,
  0x85, 0x77, 0xab, 0xbf, 0x82, 0x09, 0x32, 0xbf, 0xb8, 0x26, 0xa3, 0xbf,
  0xc1, 0x8e, 0xbc, 0x3e, 0x9d, 0x85, 0x2c, 0xbe, 0xd5, 0x42, 0x97, 0xbe,
  0x1f, 0xc7, 0xd5, 0x3e, 0x90, 0x49, 0x2f, 0xbe, 0xf8, 0x42, 0xeb, 0x3f,
  0x56, 0x5a, 0x63, 0x3e, 0x93, 0x34, 0x69, 0xbe, 0x9d, 0xbb, 0xfd, 0x3e,
  0xa0, 0x56, 0xa1, 0x3e, 0x64, 0x0a, 0x23, 0x3f, 0x2b, 0x88, 0xca, 0xbc,
  0xd5, 0x3e, 0x16, 0x3f, 0xa0, 0x14, 0x63, 0xbf, 0xd1, 0x4f, 0x44, 0x3f,
  0x1e, 0x50, 0x66, 0xbd, 0x88, 0x7b, 0x08, 0xbf, 0x54, 0x32, 0x64, 0x3e,
  0x9d, 0x13, 0xcd, 0x3e, 0x7e, 0x9c, 0x6b, 0xbe, 0xc1, 0xe8, 0x17, 0xbe,
  0x40, 0xf5, 0xc3, 0x3e, 0x59, 0x18, 0x16, 0x3e, 0x4b, 0x54, 0x89, 0xbf,
  0x9f, 0x3f, 0xbe, 0xbf, 0x9d, 0xdf, 0xe1, 0xbf, 0x84, 0x32, 0xb8, 0xbe,
  0x7b, 0x1d, 0x29, 0x3f, 0x2b, 0xb7, 0xea, 0x3e, 0xcb, 0xdf, 0x25, 0x3f,
  0xd9, 0xb1, 0x0b, 0xbe, 0xfb, 0x67, 0x04, 0x3f, 0x3b, 0x76, 0xb9, 0xbf,
  0x2e, 0xcf, 0x65, 0xbe, 0xcb, 0x2e, 0xa9, 0xbe, 0x8e, 0x2b, 0xf5, 0x3d,
  0xbb, 0xc6, 0xbb, 0xbf, 0x80, 0xcb, 0x54, 0x3e, 0x8c, 0x19, 0x56, 0xbf,
  0x68, 0x1d, 0xfc, 0x3d, 0x81, 0xcd, 0xf9, 0xbd, 0x48, 0xea, 0xcb, 0x3e,
  0xfc, 0x1e, 0x82, 0x3e, 0xf4, 0x7c, 0xcc, 0x3f, 0x0b, 0x88, 0x42, 0x3f,
  0x6a, 0x9e, 0x15, 0x3f, 0x6f, 0xe2, 0xec, 0x3e, 0xf8, 0xa3, 0xae, 0xbe,
  0x26, 0xde, 0x99, 0x3e, 0x9e, 0xda, 0xb6, 0x3f, 0x42, 0x06, 0xf7, 0xbe,
  0xd2, 0xca, 0x16, 0x3d, 0xac, 0x08, 0xb2, 0xbe, 0x83, 0x8e, 0xc0, 0xbf,
  0x28, 0x55, 0xcd, 0xbd, 0xaf, 0x96, 0x63, 0xbf, 0x43, 0xfb, 0x60, 0x3f,
  0x9a, 0x6e, 0xc6, 0x3e, 0x45, 0xab, 0xf4, 0x3f, 0x0a, 0x24, 0x5e, 0x3f,
  0xd5, 0xdb, 0xb1, 0xbe, 0x5d, 0x1a, 0x67, 0x3f, 0x03, 0x89, 0xa9, 0xbd,
  0xc4, 0xf9, 0x2a, 0x3d, 0xa1, 0xc5, 0x46, 0x3f, 0xa0, 0xe1, 0x9d, 0xbe,
  0x6d, 0x04, 0x12, 0xbf, 0x59, 0xce, 0x62, 0x3e, 0x81, 0xf8, 0x3e, 0xbf,
  0xc0, 0xcb, 0x71, 0x3f, 0x7a, 0x80, 0x77, 0x3e, 0xdf, 0x5c, 0x94, 0xbe,
  0x8a, 0xf4, 0x35, 0x3f, 0x1f, 0x71, 0x05, 0x3f, 0x85, 0x4c, 0xe2, 0x3e,
  0x7d, 0xad, 0xa5, 0xbf, 0xcc, 0x1f, 0x38, 0x3e, 0xba, 0x67, 0xac, 0xbf,
  0x30, 0xca, 0x5d, 0x3f, 0x5a, 0xf3, 0x61, 0xbe, 0x2a, 0x21, 0x3c, 0xbf,
  0xed, 0xb4, 0x99, 0x3e, 0x59, 0x55, 0xb8, 0x3e, 0xf7, 0xe8, 0x9f, 0xbf,
  0x42, 0x01, 0x13, 0xbe, 0xc1, 0xc7, 0x01, 0xbf, 0x32, 0xd9, 0x8a, 0x3e,
  0x7e, 0x6c, 0x93, 0xbf, 0x5e, 0x86, 0x4d, 0xbf, 0xd0, 0x82, 0xdf, 0xbf,
  0xa8, 0xf2, 0x81, 0xbe, 0x75, 0xd2, 0xfb, 0x3e, 0x3f, 0x62, 0x64, 0x3f,
  0xf4, 0x25, 0xae, 0x3e, 0xac, 0x77, 0x93, 0xbe, 0xff, 0x30, 0x11, 0x3f,
  0x7f, 0x87, 0xaf, 0xbf, 0x30, 0x99, 0x25, 0x3e, 0xc3, 0x72, 0xd7, 0x3d,
  0xbe, 0x79, 0x17, 0xbe, 0xc0, 0x60, 0xf9, 0xbf, 0x08, 0xbc, 0x1c, 0x3e,
  0xf3, 0x6e, 0x83, 0xbf, 0x4f, 0xf2, 0xf2, 0xbd, 0xa3, 0x1e, 0x9a, 0xbe,
  0xfe, 0x3b, 0x42, 0xbf, 0xd3, 0x02, 0x11, 0x3f, 0xcb, 0x16, 0x93, 0x3f,
  0xaf, 0x39, 0x2f, 0x3f, 0x17, 0xbf, 0x5d, 0x3e, 0x8b, 0x2c, 0x21, 0x3d,
  0xf2, 0x47, 0x16, 0xba, 0x77, 0xf6, 0xa6, 0xbf, 0xe4, 0x4c, 0x88, 0x3f,
  0x1c, 0x36, 0x91, 0x3e, 0x5c, 0x2e, 0xc7, 0x3e, 0xb8, 0xf5, 0x45, 0x3e,
  0x23, 0xf8, 0xeb, 0xbf, 0x0d, 0x8f, 0x54, 0x3e, 0x00, 0xf2, 0x00, 0xc0,
  0x18, 0x2f, 0x39, 0x3f, 0xe7, 0xcc, 0x36, 0x3d, 0xf0, 0x89, 0x0d, 0x40,
  0xb3, 0x89, 0x08, 0x3f, 0xf3, 0x4e, 0xed, 0xbe, 0x4d, 0x66, 0x4c, 0x3f,
  0xfa, 0xd3, 0x17, 0xbf, 0xb2, 0x65, 0x37, 0xbe, 0xad, 0x3e, 0xa1, 0x3e,
  0xe6, 0x53, 0xda, 0xbe, 0xd0, 0x7b, 0x95, 0xbe, 0xd2, 0x86, 0xda, 0x3e,
  0xc1, 0xf3, 0xb6, 0xbe, 0xe9, 0xbe, 0x9d, 0x3f, 0x3e, 0x36, 0x2b, 0x3d,
  0xf3, 0xc0, 0x54, 0xbe, 0xc5, 0xb6, 0x23, 0x3f, 0xcb, 0x0c, 0x20, 0x3f,
  0xa0, 0x28, 0x5c, 0x3f, 0xbc, 0x8c, 0x2f, 0xbe, 0xcf, 0x63, 0xef, 0x3e,
  0x89, 0x98, 0x6d, 0xbf, 0x59, 0xc5, 0x5a, 0x3f, 0xd6, 0x4f, 0x23, 0xbd,
  0xa4, 0x57, 0x86, 0xbf, 0xc4, 0x2b, 0xed, 0x3e, 0x29, 0x10, 0x0a, 0x3f,
  0x53, 0xbe, 0x1a, 0xbe, 0x65, 0x67, 0x5f, 0xbd, 0x7c, 0x46, 0xa2, 0x3e,
  0x91, 0x9f, 0xd1, 0x3d, 0xcd, 0x66, 0x9e, 0xbf, 0x61, 0x35, 0xcb, 0xbf,
  0x9b, 0x0a, 0xed, 0xbf, 0x33, 0xac, 0x0e, 0xbe, 0x37, 0x60, 0x44, 0x3f,
  0x0a, 0x60, 0x0c, 0x3f, 0x1f, 0xa4, 0xe9, 0x3e, 0xe4, 0x5b, 0xb6, 0xbe,
  0xe5, 0xa7, 0x03, 0x3f, 0x16, 0xf5, 0xb5, 0xbf, 0x21, 0xe5, 0x5d, 0xbe,
  0xaf, 0x28, 0xc7, 0xbe, 0xfa, 0xaa, 0xaf, 0x3d, 0x23, 0x12, 0xb5, 0xbf,
  0x20, 0x83, 0xd8, 0x3d, 0x2e, 0xd9, 0x7d, 0xbf, 0x87, 0x26, 0x46, 0x3e,
  0x89, 0xad, 0x11, 0xbd, 0x75, 0x29, 0xcd, 0x3e, 0x15, 0xbe, 0x91, 0x3e,
  0xa9, 0xf1, 0xd2, 0x3f, 0xa8, 0x6c, 0x03, 0x3f, 0x3d, 0xcc, 0x12, 0x3f,
  0x73, 0x92, 0xbf, 0x3e, 0xf0, 0xdb, 0x7d, 0xbe, 0xe0, 0xc2, 0x38, 0x3e,
  0x4e, 0x66, 0xc1, 0x3f, 0x5e, 0xfc, 0x06, 0xbf, 0xcb, 0xf5, 0x70, 0xbd,
  0xc8, 0x40, 0x01, 0xbf, 0x8e, 0x63, 0xd0, 0xbf, 0x31, 0xc1, 0x0c, 0x3d,
  0xbd, 0xe0, 0x93, 0xbf, 0xb8, 0x0f, 0x55, 0x3f, 0x57, 0x26, 0x02, 0x3f,
  0x73, 0x86, 0xf9, 0x3f, 0xbb, 0x78, 0x63, 0x3f, 0xdf, 0x89, 0xd9, 0xbe,
  0x2f, 0x98, 0x8c, 0x3f, 0x91, 0x0a, 0x29, 0xbe, 0xb1, 0x02, 0x0e, 0x3e,
  0x9e, 0x67, 0x94, 0xbf, 0x7b, 0x65, 0x4c, 0xc0, 0xfd, 0xb7, 0x1e, 0xc0,
  0x59, 0xe6, 0x4f, 0xbe, 0xad, 0x3d, 0x13, 0x3e, 0x6c, 0x98, 0x85, 0x3e,
  0xc3, 0x0f, 0xa0, 0xbf, 0x7a, 0x51, 0x86, 0x3f, 0xd2, 0x4c, 0xe6, 0x3e,
  0xa0, 0x3b, 0x89, 0xbe, 0xa5, 0x95, 0xc2, 0xbe, 0x5d, 0xc0, 0x42, 0x3f,
  0x97, 0x9e, 0x12, 0xc0, 0x31, 0x08, 0x1c, 0xc0, 0x6f, 0xcb, 0x59, 0x3f,
  0x17, 0x8f, 0xec, 0x3d, 0x17, 0x0a, 0xd4, 0xbe, 0xa3, 0x32, 0x64, 0x3f,
  0x76, 0x2e, 0x42, 0xbf, 0xcb, 0x81, 0x7c, 0xbf, 0xba, 0x94, 0x9b, 0xbf,
  0x8a, 0x8b, 0x24, 0x3e, 0x5e, 0xad, 0x85, 0xbf, 0x57, 0x27, 0xc8, 0xbe,
  0xba, 0x17, 0x93, 0xbe, 0x84, 0xbb, 0xc8, 0x3e, 0x3d, 0x75, 0x00, 0x3e,
  0xfb, 0xee, 0x15, 0xbf, 0x70, 0x3b, 0x03, 0x3f, 0x18, 0x04, 0x9c, 0x3f,
  0xd1, 0x6f, 0xe6, 0x3c, 0x74, 0xb3, 0xe6, 0xbb, 0x01, 0x46, 0xdb, 0x3e,
  0xde, 0x8a, 0xeb, 0xbe, 0x1c, 0x5e, 0x1f, 0xbf, 0x02, 0x91, 0x40, 0xbe,
  0x73, 0xfb, 0x19, 0x3f, 0x50, 0x1c, 0x53, 0x3e, 0xe4, 0xe3, 0x70, 0xbe,
  0xa9, 0x3a, 0xb2, 0x3f, 0x74, 0x21, 0x16, 0xbe, 0x7c, 0x36, 0x66, 0xbf,
  0xcc, 0x0a, 0x3c, 0xbf, 0xf7, 0x7c, 0xed, 0xbe, 0xd0, 0x25, 0x94, 0x3f,
  0x9b, 0x5e, 0x15, 0x3e, 0x59, 0x92, 0x9d, 0x3f, 0x7e, 0xa4, 0x6b, 0xc0,
  0xa0, 0x92, 0x8a, 0xc0, 0x1c, 0x8d, 0xfd, 0x3e, 0xa3, 0x49, 0x5a, 0xbe,
  0x14, 0xca, 0x26, 0xc0, 0x44, 0xc3, 0x8c, 0x3e, 0xae, 0xbf, 0x56, 0x3e,
  0x10, 0x05, 0x18, 0x3f, 0x0a, 0xe8, 0x39, 0x3f, 0xe5, 0x18, 0x9a, 0xbb,
  0xee, 0x84, 0x7e, 0xbd, 0x70, 0x96, 0x43, 0xbf, 0xbe, 0x0d, 0x92, 0xbf,
  0xcd, 0x3e, 0x69, 0xbd, 0xf7, 0xf8, 0x00, 0xc0, 0x1c, 0xf0, 0x51, 0xbf,
  0xd9, 0xc5, 0x3d, 0xbf, 0xbc, 0x8e, 0xb5, 0x3e, 0xed, 0xc1, 0x62, 0xbe,
  0x91, 0x32, 0xcd, 0xbe, 0x2a, 0xf9, 0xaa, 0x3e, 0xfd, 0x91, 0xe9, 0xbe,
  0xf9, 0xfc, 0xd4, 0x3f, 0x76, 0x13, 0x5b, 0xbd, 0xb3, 0xfd, 0x11, 0xbe,
  0x25, 0x75, 0x0a, 0x3f, 0x3c, 0x71, 0xf4, 0x3e, 0xc4, 0x03, 0x3e, 0x3f,
  0x77, 0xb9, 0x79, 0xbd, 0x32, 0x35, 0xe1, 0x3e, 0xae, 0x99, 0x9a, 0xbf,
  0xe4, 0x88, 0x35, 0x3f, 0x74, 0x29, 0x9b, 0xbc, 0x96, 0x7f, 0xb8, 0xbf,
  0x4b, 0x20, 0x80, 0x3e, 0x96, 0xd9, 0xed, 0x3e, 0x5f, 0x59, 0x27, 0xbd,
  0x86, 0x30, 0x5f, 0xbe, 0x00, 0x7f, 0x4c, 0x3e, 0xad, 0x7d, 0xca, 0xbc,
  0x4a, 0x93, 0x77, 0xbf, 0x31, 0xfa, 0x9e, 0xbf, 0xdf, 0xfb, 0xd1, 0xbf,
  0xd0, 0x16, 0x4b, 0xbe, 0xa1, 0x0a, 0x21, 0x3f, 0xa1, 0x3a, 0x46, 0x3f,
  0xa6, 0xde, 0x08, 0x3f, 0xd8, 0x93, 0xc2, 0x3d, 0xd1, 0x1a, 0x77, 0x3e,
  0xe6, 0xad, 0xae, 0xbf, 0xfb, 0x5e, 0x74, 0x3d, 0x23, 0x09, 0xd7, 0xbe,
  0x65, 0xbd, 0x48, 0x3d, 0x95, 0x25, 0xd8, 0xbf, 0x80, 0xaf, 0xb3, 0xbc,
  0xf5, 0x94, 0x45, 0xbf, 0xf2, 0x09, 0x52, 0xbc, 0x6f, 0xdb, 0x9d, 0xbe,
  0x4c, 0xa9, 0x97, 0x3e, 0x23, 0x4e, 0xe3, 0x3e, 0x59, 0x5a, 0xb8, 0x3f,
  0x60, 0xb1, 0x38, 0x3f, 0x31, 0x18, 0x52, 0x3f, 0x49, 0xd7, 0xa5, 0x3e,
  0x14, 0x21, 0xca, 0xbd, 0xfe, 0x39, 0x04, 0x3e, 0x45, 0x9a, 0xb4, 0x3f,
  0x32, 0x04, 0x29, 0xbf, 0x1c, 0xd0, 0x0d, 0x3e, 0x9c, 0xa6, 0xad, 0xbe,
  0xdf, 0xab, 0xc7, 0xbf, 0xf9, 0x55, 0xe3, 0x3c, 0x25, 0xae, 0x6e, 0xbf,
  0xd8, 0x81, 0x6b, 0x3f, 0x7b, 0x17, 0x41, 0x3e, 0xbc, 0xb0, 0xe0, 0x3f,
  0xea, 0xc1, 0xb4, 0x3f, 0x2d, 0x84, 0x41, 0xbe, 0x02, 0x4e, 0x6e, 0x3f,
  0xdd, 0xc1, 0x54, 0xbf, 0x91, 0x1e, 0xc7, 0x3e, 0x89, 0x30, 0xb4, 0xbe,
  0x4c, 0x67, 0x57, 0x3f, 0xbb, 0x14, 0x39, 0x3f, 0x49, 0x22, 0xe3, 0xbf,
  0xcc, 0xd7, 0xc1, 0xbc, 0x3a, 0x83, 0xf6, 0xbf, 0x91, 0xf4, 0x38, 0x3b,
  0x02, 0x38, 0x79, 0x3e, 0x8d, 0x81, 0xc7, 0xbe, 0x79, 0x78, 0xf8, 0x3e,
  0x55, 0xfa, 0xdf, 0xbf, 0x36, 0x47, 0xab, 0x3c, 0x92, 0x09, 0xfc, 0xbe,
  0xab, 0x95, 0xe6, 0xbe, 0x21, 0xde, 0x13, 0x3f, 0x11, 0x5d, 0xc7, 0xbd,
  0x5d, 0xa6, 0xd0, 0xbe, 0xd3, 0xbd, 0x3d, 0x3f, 0xb5, 0xd4, 0x0e, 0xc0,
  0x26, 0xd2, 0x3d, 0xbf, 0x3e, 0xc3, 0x96, 0xbe, 0xe2, 0x28, 0x73, 0xbf,
  0x4d, 0x8d, 0x92, 0x3f, 0xbf, 0x22, 0xa4, 0x3f, 0x08, 0x35, 0xba, 0x3c,
  0x77, 0x9a, 0x39, 0x3e, 0x40, 0xad, 0xe7, 0xbe, 0x90, 0x92, 0x49, 0x3f,
  0xf4, 0x0c, 0x05, 0x3f, 0xb9, 0x66, 0x33, 0x3d, 0x0e, 0x7c, 0x22, 0x3d,
  0x47, 0x6e, 0x03, 0x3f, 0xbd, 0xab, 0x04, 0x3f, 0x94, 0x7b, 0xfd, 0xbd,
  0x80, 0x34, 0x54, 0xc0, 0xf1, 0x3a, 0x69, 0xbd, 0xeb, 0xf5, 0x71, 0xbd,
  0xa8, 0x48, 0xa6, 0xbd, 0xcd, 0xcd, 0x50, 0x3e, 0x37, 0xff, 0x1b, 0x3f,
  0x2f, 0xee, 0x9f, 0x3d, 0xc1, 0x95, 0xd4, 0xbf, 0x06, 0x88, 0x9a, 0xbd,
  0xe5, 0x2d, 0x22, 0xbe, 0x1a, 0x41, 0x72, 0xbf, 0x8e, 0x8c, 0x08, 0x3f,
  0x7a, 0x62, 0x4a, 0x3f, 0xc4, 0x7b, 0xe3, 0xbf, 0x31, 0x72, 0xc5, 0xbf,
  0xdf, 0xb3, 0x04, 0x3f, 0x9b, 0x8d, 0x87, 0x3e, 0x35, 0xa1, 0x43, 0x3d,
  0xa6, 0x63, 0x92, 0x3d, 0xca, 0x3b, 0xd1, 0xbe, 0x66, 0xf0, 0x05, 0xbb,
  0xb2, 0xdd, 0xd4, 0xbe, 0x09, 0x7a, 0xb3, 0x3e, 0x1d, 0xa3, 0x63, 0xbe,
  0x4e, 0xaf, 0x1e, 0xc0, 0xf6, 0x91, 0xe2, 0xbf, 0x88, 0x1d, 0x88, 0xbe,
  0x6e, 0x59, 0x44, 0xbf, 0x8b, 0xb0, 0x48, 0xbf, 0xda, 0x09, 0xba, 0xc0,
  0x6d, 0xf4, 0x28, 0x3f, 0x44, 0x51, 0xaf, 0xbe, 0x2b, 0xcf, 0xd5, 0x3e,
  0xbb, 0x69, 0xf8, 0xbf, 0x59, 0x90, 0x62, 0xbf, 0x23, 0xd0, 0x14, 0x3f,
  0x68, 0x05, 0x71, 0xbe, 0x03, 0x7a, 0x40, 0xbe, 0x3b, 0x03, 0xd1, 0x3e,
  0x10, 0x05, 0x4a, 0x3d, 0xce, 0x3e, 0xb3, 0xbe, 0x4f, 0x14, 0x8f, 0x3e,
  0x9b, 0x51, 0x6b, 0x3e, 0x93, 0x3e, 0x2e, 0xc0, 0xae, 0x64, 0x5e, 0xbc,
  0xd6, 0x1b, 0x96, 0xc0, 0xa2, 0xe7, 0x69, 0x3d, 0x9e, 0xfa, 0x2a, 0x3e,
  0x09, 0xbc, 0x95, 0xbf, 0xaf, 0xfd, 0xc7, 0xbf, 0xee, 0x9e, 0xce, 0xbf,
  0x3e, 0x40, 0xc5, 0x3d, 0xef, 0xa9, 0x2d, 0x3e, 0x66, 0xc3, 0x8b, 0xbf,
  0x2e, 0x40, 0x23, 0xbf, 0x44, 0x7d, 0xde, 0x3e, 0xdc, 0x23, 0x91, 0xbf,
  0xe2, 0x1e, 0x9a, 0x3e, 0x5a, 0x0f, 0x6c, 0x3e, 0x13, 0x0d, 0x57, 0x3e,
  0x79, 0x79, 0x37, 0xc0, 0x6c, 0xe8, 0x24, 0xbf, 0xcc, 0x1b, 0xfa, 0x3e,
  0xed, 0x2b, 0x93, 0x3e, 0xf4, 0x0e, 0x8b, 0xbf, 0xe9, 0x3d, 0xd0, 0xbd,
  0x0c, 0xf1, 0x9b, 0xbe, 0x00, 0x3a, 0xcd, 0xbd, 0xca, 0x6d, 0x25, 0xc0,
  0x70, 0x42, 0x23, 0x3e, 0x44, 0x14, 0x2f, 0xbc, 0xfb, 0x42, 0x23, 0x3c,
  0x93, 0x88, 0x94, 0x3e, 0x4b, 0xe1, 0x07, 0x3e, 0x40, 0xec, 0x14, 0x3f,
  0xfb, 0x49, 0x7c, 0x3e, 0xcc, 0x0e, 0x1c, 0xc0, 0x31, 0x6c, 0x0c, 0xbe,
  0xf9, 0x1a, 0x46, 0xbd, 0xb9, 0xd6, 0x78, 0xbd, 0x53, 0x64, 0x06, 0xbe,
  0x2f, 0x80, 0xa5, 0xbf, 0x50, 0xb3, 0xb3, 0xbe, 0x0f, 0x28, 0xe9, 0xbd,
  0x84, 0xab, 0x36, 0xbd, 0xc6, 0xcc, 0x0e, 0xbf, 0x46, 0x72, 0x0a, 0x40,
  0xe5, 0xd1, 0xf7, 0xbe, 0xc6, 0x2d, 0x20, 0x3f, 0x74, 0xb5, 0x9a, 0xbe,
  0xbe, 0x48, 0xb9, 0xbe, 0x63, 0x31, 0x60, 0x3f, 0xce, 0xdd, 0xa9, 0xbf,
  0x33, 0x96, 0xff, 0x3e, 0x74, 0x79, 0xe4, 0x3e, 0x19, 0xaf, 0xe8, 0xbe,
  0xff, 0xbf, 0xcc, 0xbe, 0x98, 0x46, 0xcc, 0x3e, 0xe1, 0x16, 0x7d, 0xbe,
  0x3f, 0x13, 0x9f, 0x3f, 0xdb, 0x14, 0x9a, 0x3b, 0x15, 0x82, 0x8d, 0xbe,
  0xad, 0xc9, 0xe3, 0x3e, 0x87, 0xd2, 0x20, 0x3f, 0x35, 0x15, 0x73, 0x3f,
  0x7f, 0x5b, 0x0c, 0x3d, 0x2c, 0x3d, 0x0e, 0x3f, 0x39, 0x7d, 0x92, 0xbf,
  0x4b, 0xf9, 0x6b, 0x3f, 0xcb, 0x19, 0x80, 0x3e, 0x18, 0x16, 0xab, 0xbf,
  0x7e, 0xb7, 0xd4, 0x3e, 0xd9, 0x95, 0x18, 0x3f, 0x5b, 0x13, 0x6c, 0xbd,
  0xbb, 0xbe, 0x3b, 0xbe, 0x0f, 0xd7, 0x86, 0x3e, 0x70, 0xfc, 0x69, 0x3d,
  0x31, 0x21, 0x8d, 0xbf, 0xb4, 0x69, 0xae, 0xbf, 0xa2, 0x04, 0xf4, 0xbf,
  0xd3, 0x73, 0xa4, 0xbe, 0xcb, 0xca, 0x20, 0x3f, 0x32, 0x54, 0x45, 0x3f,
  0xdb, 0x56, 0x33, 0x3f, 0xdb, 0xaa, 0xa5, 0xbe, 0x81, 0xfb, 0xed, 0x3e,
  0x50, 0x7f, 0xd6, 0xbf, 0x3e, 0xf3, 0xb5, 0xbd, 0x66, 0x46, 0xc1, 0xbe,
  0x91, 0x5c, 0xc7, 0xbd, 0x0c, 0x12, 0xd3, 0xbf, 0x00, 0xb5, 0x9f, 0x3b,
  0x07, 0xf0, 0x45, 0xbf, 0x67, 0x6f, 0xb2, 0xbd, 0x12, 0x98, 0xa7, 0xbd,
  0x72, 0x89, 0x06, 0x3f, 0xb9, 0x65, 0xd2, 0x3e, 0xa8, 0xa3, 0xc7, 0x3f,
  0xb1, 0xe4, 0x3b, 0x3f, 0x4c, 0x11, 0x5c, 0x3f, 0x13, 0x37, 0x88, 0x3e,
  0xc3, 0xc2, 0x07, 0xbe, 0xa2, 0x6e, 0xac, 0x3d, 0xee, 0xc8, 0x9f, 0x3f,
  0x10, 0xfb, 0x02, 0xbf, 0xe3, 0x4e, 0x8a, 0x3e, 0xcb, 0x63, 0xf0, 0xbe,
  0x9d, 0xcf, 0xc4, 0xbf, 0xd5, 0x6b, 0x9d, 0x3c, 0xa2, 0x9b, 0x65, 0xbf,
  0xe5, 0xa8, 0x54, 0x3f, 0x25, 0x51, 0xff, 0x3e, 0x92, 0x95, 0xef, 0x3f,
  0x72, 0xa8, 0x94, 0x3f, 0xf8, 0xb3, 0x34, 0xbe, 0x21, 0x17, 0x7e, 0x3f,
  0xd6, 0xe8, 0x2a, 0xbf, 0x27, 0xc7, 0xfa, 0x3d, 0x3e, 0x60, 0xa7, 0xc0,
  0x86, 0xcd, 0x80, 0xc0, 0x99, 0x12, 0x9a, 0x3f, 0x1c, 0x99, 0xc6, 0x3d,
  0xb6, 0xd7, 0xf1, 0x3e, 0x99, 0x88, 0xf2, 0x3f, 0xd2, 0xe4, 0xa4, 0x3e,
  0xbb, 0x2d, 0xc4, 0x3f, 0xc9, 0xa7, 0xe1, 0x3e, 0x2a, 0x81, 0x0d, 0xbf,
  0xd8, 0xd8, 0xad, 0xbf, 0xa7, 0x12, 0x8b, 0x3e, 0xa3, 0x6a, 0x95, 0x3e,
  0x77, 0xa6, 0x44, 0x3e, 0x19, 0x54, 0x89, 0xbf, 0x0d, 0x03, 0x43, 0xbe,
  0x46, 0x97, 0xae, 0xbf, 0x00, 0xb2, 0x83, 0xbe, 0x3f, 0x0f, 0xdb, 0x3e,
  0x77, 0x03, 0xda, 0xbf, 0xa9, 0x85, 0x13, 0x3f, 0xd0, 0xe8, 0x07, 0x3f,
  0xb6, 0x36, 0xdc, 0xbf, 0x6e, 0x5c, 0xd4, 0x3f, 0xf3, 0xbc, 0x3a, 0x3e,
  0x44, 0xf7, 0xd4, 0xbe, 0x30, 0x02, 0x02, 0x3f, 0x3d, 0x2f, 0x17, 0x3e,
  0x29, 0x4a, 0x47, 0x3d, 0x9e, 0x26, 0x02, 0xc0, 0x8d, 0x92, 0x39, 0x3e,
  0x6c, 0x68, 0x7d, 0xbf, 0x1d, 0xfb, 0xc1, 0xbf, 0x2e, 0x77, 0x00, 0xc0,
  0x19, 0xe4, 0x9a, 0xbf, 0x55, 0x88, 0xa2, 0xbc, 0xbf, 0x23, 0x5c, 0x3f,
  0x20, 0x12, 0x6e, 0xbe, 0xa2, 0x4f, 0x7d, 0xbd, 0xed, 0x07, 0x99, 0x3f,
  0xf0, 0x07, 0x38, 0xbe, 0x2c, 0x66, 0x24, 0xc0, 0x65, 0x24, 0x87, 0xbe,
  0x35, 0x1b, 0xa7, 0x3e, 0x12, 0xde, 0x70, 0x3d, 0x8d, 0x50, 0x6f, 0x3d,
  0xce, 0x9b, 0x47, 0xbe, 0x87, 0x08, 0x82, 0xc0, 0x82, 0x22, 0x28, 0xc0,
  0xc5, 0xd1, 0x1e, 0xbf, 0x00, 0x8b, 0x5e, 0x3e, 0x10, 0xb1, 0x9b, 0xbf,
  0x88, 0x0e, 0xb7, 0xbe, 0xf1, 0xc0, 0xec, 0x3d, 0xc7, 0x7b, 0x27, 0x3f,
  0x2f, 0x86, 0xca, 0xbc, 0x0a, 0x59, 0x08, 0x3f, 0x7f, 0xff, 0xb5, 0x3e,
  0x65, 0xdc, 0x90, 0x3f, 0x91, 0x99, 0x66, 0xbe, 0xa7, 0x14, 0xe5, 0x3e,
  0x10, 0x7e, 0x4d, 0xbe, 0xde, 0x89, 0xd9, 0xbf, 0x20, 0x7f, 0x77, 0xbe,
  0x31, 0x35, 0x8b, 0xc0, 0x43, 0x79, 0x3d, 0xc0, 0x6a, 0x35, 0xcd, 0x3f,
  0x59, 0x49, 0x2f, 0x3e, 0x82, 0xe0, 0x88, 0xbf, 0x67, 0xcf, 0x98, 0x3d,
  0xe9, 0xe3, 0x65, 0x3f, 0x27, 0xe3, 0x09, 0x40, 0xd5, 0x54, 0x60, 0x3e,
  0x1d, 0x6d, 0x09, 0xbf, 0x43, 0x07, 0xbd, 0xbf, 0xa9, 0xfd, 0xf3, 0x3e,
  0x59, 0x37, 0x20, 0x3d, 0xe3, 0x5f, 0x2f, 0xbe, 0x56, 0x55, 0x42, 0xbf,
  0x9e, 0x89, 0x96, 0x3c, 0xf6, 0x11, 0xe9, 0xbf, 0x7b, 0x0d, 0x01, 0xbf,
  0x78, 0xd4, 0xaa, 0x3d, 0xec, 0xf9, 0x26, 0xc0, 0x3d, 0x86, 0x0b, 0x3e,
  0x7d, 0x71, 0x48, 0x3f, 0x35, 0x52, 0xaf, 0xbf, 0x57, 0x8d, 0x83, 0xbf,
  0x41, 0x13, 0x55, 0x3e, 0xe8, 0xc4, 0x92, 0xbe, 0xd3, 0xcf, 0x35, 0x3f,
  0x5f, 0x34, 0xaf, 0x3c, 0x00, 0x3c, 0x56, 0x3e, 0xf0, 0x8e, 0xec, 0xbf,
  0x20, 0xfe, 0x38, 0x3e, 0x98, 0x7e, 0x47, 0xbf, 0x86, 0xd8, 0x20, 0xc0,
  0x06, 0xb3, 0x22, 0xc0, 0x32, 0xb6, 0x52, 0xbf, 0x58, 0xa5, 0x76, 0x3e,
  0x6c, 0xf0, 0x5d, 0x3f, 0xb0, 0xbe, 0xc8, 0x3d, 0x3d, 0x83, 0xd8, 0xbd,
  0x68, 0x9b, 0x3e, 0x3f, 0x41, 0x29, 0xca, 0x3e, 0xce, 0x48, 0x0d, 0xc0,
  0x84, 0x23, 0x05, 0xbe, 0x78, 0x71, 0x10, 0x3f, 0x0e, 0xcc, 0xf8, 0x3d,
  0x13, 0xa1, 0x45, 0xbe, 0xdf, 0xb4, 0x91, 0xbe, 0x96, 0x7e, 0x5c, 0xc0,
  0x85, 0x98, 0xd8, 0xbf, 0xdb, 0x70, 0x86, 0xbe, 0xd4, 0x7c, 0x18, 0x3e,
  0xc7, 0x76, 0x19, 0xc0, 0x3b, 0xb3, 0xb9, 0xbe, 0xc8, 0x69, 0x3b, 0xbd,
  0x6c, 0x35, 0x17, 0x3f, 0x7d, 0x02, 0xfd, 0xbc, 0x91, 0xc2, 0x5b, 0x3e,
  0xee, 0x5f, 0x97, 0xbc, 0x8f, 0x3e, 0x83, 0x3f, 0x9e, 0x03, 0xc9, 0xbe,
  0xcb, 0x1f, 0xbd, 0x3e, 0xf4, 0x9e, 0xcc, 0xbe, 0x1c, 0x21, 0x01, 0xc0,
  0x69, 0xd5, 0xe8, 0xbe, 0x1c, 0x98, 0x93, 0x3f, 0xa7, 0x71, 0x44, 0x3e,
  0x2a, 0x00, 0x3c, 0xbf, 0x9d, 0xd6, 0x04, 0xbe, 0xe4, 0x26, 0x0d, 0x3f,
  0xee, 0xe2, 0xf6, 0xbe, 0xce, 0x21, 0x47, 0xbf, 0x71, 0xa6, 0xc8, 0xbe,
  0x7e, 0xc1, 0x48, 0xbe, 0xf9, 0x2b, 0x27, 0xbf, 0xe0, 0xb9, 0x81, 0xbf,
  0x43, 0x28, 0xdb, 0x3f, 0x5b, 0x0a, 0x71, 0x3d, 0x26, 0xdf, 0x1e, 0xbf,
  0xe0, 0x1d, 0x8d, 0x3f, 0x02, 0x1d, 0xcd, 0x3e, 0x79, 0x72, 0x94, 0x3e,
  0x9e, 0xb4, 0x0a, 0x3f, 0xe3, 0x38, 0x7c, 0xbf, 0x5a, 0x25, 0xd9, 0x3d,
  0xbf, 0x36, 0x17, 0xbf, 0xc0, 0x8d, 0xfa, 0xbe, 0x9a, 0xd6, 0xd9, 0xbd,
  0x55, 0xa4, 0xbf, 0x3e, 0xcb, 0x72, 0x4d, 0x3f, 0x88, 0xf5, 0xcd, 0xbe,
  0x48, 0x51, 0xda, 0x3e, 0xff, 0xbe, 0x6b, 0xbf, 0xbc, 0x09, 0x51, 0xbf,
  0xf7, 0x13, 0xb1, 0x3d, 0xed, 0xae, 0x29, 0x3e, 0x23, 0x58, 0x6b, 0xbd,
  0xb7, 0x5d, 0xd5, 0x3e, 0x74, 0xbc, 0x41, 0x3d, 0x1c, 0xe7, 0x72, 0x3e,
  0x45, 0x0a, 0x6d, 0x3e, 0xeb, 0x44, 0x58, 0x3f, 0xf8, 0x38, 0x0c, 0x3e,
  0x20, 0x75, 0xac, 0x3f, 0x1b, 0xdd, 0x36, 0xbd, 0x28, 0x8d, 0xb3, 0xbe,
  0xf9, 0x72, 0x30, 0xbe, 0x6d, 0xa2, 0x4e, 0xbd, 0x14, 0xa1, 0x20, 0x3f,
  0x17, 0xf0, 0x16, 0x3f, 0xac, 0x8b, 0xce, 0xbf, 0xfa, 0xd4, 0x96, 0xbc,
  0x20, 0xa7, 0x91, 0x3e, 0xff, 0x14, 0xdb, 0x3e, 0x33, 0x34, 0x5b, 0xbf,
  0xdc, 0x6a, 0xd7, 0xbe, 0xf8, 0xad, 0x4e, 0xbe, 0x9a, 0x63, 0x78, 0x3f,
  0xe2, 0xa2, 0x5d, 0xbf, 0xdd, 0x52, 0x36, 0x3f, 0x71, 0xa2, 0xe8, 0xbe,
  0x71, 0xe3, 0xc0, 0xbe, 0x1a, 0xff, 0x0a, 0xbe, 0xce, 0x3a, 0x55, 0x3e,
  0x14, 0x2f, 0xdc, 0xbe, 0xf0, 0x75, 0x7b, 0x3e, 0xc8, 0x69, 0x83, 0xbf,
  0xed, 0xde, 0x8d, 0x3e, 0x89, 0x2f, 0x47, 0xbf, 0xf6, 0xd5, 0x0f, 0x3f,
  0x62, 0xd3, 0x9f, 0xbd, 0x38, 0x2d, 0xba, 0xbe, 0x2a, 0x2e, 0x9b, 0x3e,
  0x26, 0x69, 0x26, 0xbf, 0x29, 0xc4, 0xa4, 0x3f, 0xf6, 0x1d, 0x60, 0x3e,
  0x7c, 0xc7, 0xc0, 0xbe, 0x44, 0x16, 0x9d, 0x3e, 0xef, 0xf4, 0xd2, 0x3e,
  0x9a, 0x4d, 0x71, 0x3f, 0xc2, 0xf3, 0xa6, 0x3d, 0x91, 0x2d, 0x4e, 0x3f,
  0x2f, 0xcc, 0x69, 0xbf, 0x67, 0xc2, 0x6c, 0x3f, 0xd0, 0x72, 0xe9, 0xbe,
  0x48, 0xc8, 0xa8, 0xbf, 0x39, 0xb7, 0x2a, 0x3e, 0x69, 0xe1, 0xd6, 0x3e,
  0x45, 0x84, 0xa4, 0xbd, 0x76, 0x74, 0xaa, 0x3d, 0x61, 0x7e, 0x6e, 0x3e,
  0x34, 0x16, 0x56, 0xbb, 0xca, 0x1b, 0x80, 0xbf, 0xf6, 0x5b, 0xa6, 0xbf,
  0x28, 0x1b, 0x7b, 0xbf, 0x81, 0xff, 0x94, 0xbd, 0x07, 0x75, 0x58, 0x3f,
  0xcb, 0x7d, 0xb7, 0x3e, 0xc7, 0x5a, 0x0d, 0x3f, 0x54, 0x16, 0x19, 0x3e,
  0x0a, 0x5d, 0xfa, 0x3e, 0xb7, 0xbb, 0xbc, 0xbf, 0x2d, 0x05, 0x84, 0x3d,
  0xff, 0xb6, 0x89, 0xbe, 0x7d, 0x45, 0xeb, 0x3b, 0xa0, 0xd0, 0xe7, 0xbf,
  0x00, 0xf7, 0x79, 0xbc, 0x41, 0x75, 0x51, 0xbf, 0xdd, 0x10, 0x34, 0x3d,
  0x41, 0x5f, 0x7f, 0xbe, 0x07, 0x49, 0xf9, 0x3e, 0xd3, 0x5a, 0x49, 0x3e,
  0xe7, 0x9c, 0xb2, 0x3f, 0x6a, 0xba, 0x54, 0x3f, 0xf2, 0x6b, 0xf5, 0x3e,
  0x6f, 0x18, 0xef, 0x3e, 0x3b, 0x00, 0xc4, 0xbd, 0xf5, 0x1f, 0x0b, 0x3f,
  0xc4, 0x22, 0xb9, 0x3f, 0x94, 0x36, 0xa9, 0xbe, 0x63, 0xe8, 0x4f, 0x3e,
  0xc7, 0x2c, 0x09, 0xbf, 0xc1, 0x97, 0xc1, 0xbf, 0xae, 0xda, 0x5a, 0x3e,
  0xc3, 0xd6, 0x75, 0xbf, 0xc0, 0xf7, 0x2a, 0x3f, 0x22, 0xc9, 0x09, 0x3e,
  0x28, 0x54, 0xfa, 0x3f, 0x0c, 0x8f, 0x2f, 0x3f, 0x05, 0xb5, 0x12, 0xbf,
  0x64, 0xda, 0x3d, 0x3f, 0x85, 0x85, 0x76, 0xbe, 0x57, 0x28, 0xb7, 0x3e,
  0xcc, 0x1e, 0xd3, 0xc0, 0x05, 0x7e, 0x93, 0xbf, 0xb5, 0xd0, 0xa9, 0x3f,
  0x52, 0x95, 0xb7, 0xbf, 0x55, 0x73, 0x07, 0x3f, 0x64, 0x00, 0x20, 0x3f,
  0xc7, 0x12, 0x8b, 0xbc, 0x84, 0xd0, 0x5f, 0xbf, 0x81, 0x98, 0xd9, 0xbe,
  0x50, 0x79, 0x04, 0xbf, 0x0f, 0x1d, 0xa4, 0x3f, 0xda, 0x00, 0x48, 0x3f,
  0x62, 0x7c, 0x55, 0x3f, 0x89, 0xa9, 0x51, 0x3e, 0x70, 0x11, 0x29, 0xbf,
  0xb6, 0x1a, 0x55, 0xbf, 0xdc, 0x1c, 0x93, 0xbe, 0xa1, 0x3a, 0x4f, 0xbf,
  0xf0, 0x36, 0x0c, 0x3f, 0x85, 0x05, 0x79, 0xbe, 0x4d, 0x7c, 0x4d, 0x3f,
  0x12, 0x2c, 0xdf, 0xbe, 0x7c, 0x28, 0x90, 0xbf, 0x00, 0x11, 0x2d, 0xbd,
  0x19, 0x47, 0x1f, 0xbf, 0x6c, 0x84, 0x05, 0xbf, 0x93, 0x14, 0x43, 0x3f,
  0x6d, 0x33, 0x5f, 0x3f, 0x35, 0x57, 0x50, 0xbe, 0x3c, 0x02, 0x2e, 0xc0,
  0x13, 0xf4, 0xed, 0xbd, 0x22, 0x10, 0x43, 0xbf, 0x40, 0xeb, 0xcf, 0xbe,
  0x71, 0x7b, 0x9a, 0xbf, 0x93, 0xb8, 0x39, 0xbd, 0x10, 0x2a, 0x8a, 0x3e,
  0x6e, 0xb9, 0xb7, 0x3e, 0x30, 0x08, 0x66, 0xbd, 0x61, 0x12, 0x65, 0xbe,
  0x2b, 0x1b, 0x65, 0x3e, 0xb4, 0xf3, 0xb4, 0x3e, 0xa3, 0x66, 0xa4, 0xbf,
  0x82, 0x51, 0x12, 0x3f, 0x07, 0xbe, 0x82, 0xbf, 0x9d, 0xd2, 0x40, 0x3c,
  0xc6, 0xd6, 0xae, 0x3e, 0x1e, 0x25, 0x59, 0x3d, 0x4c, 0x5f, 0xcb, 0x3c,
  0x72, 0xe7, 0xc2, 0xbf, 0xdb, 0x00, 0x5c, 0x3e, 0x8d, 0x38, 0xc6, 0xbd,
  0x5f, 0xa6, 0xba, 0xbe, 0xa2, 0xbe, 0x2f, 0xbe, 0x76, 0x8b, 0xfa, 0x3d,
  0x42, 0x6e, 0x8d, 0xbd, 0x10, 0xaf, 0x09, 0xbf, 0x60, 0x4b, 0x41, 0x3e,
  0x88, 0xc3, 0x27, 0x3e, 0x79, 0x9f, 0xa3, 0x3e, 0xb8, 0xbe, 0xcf, 0x3e,
  0xa6, 0x10, 0x29, 0xbf, 0x23, 0x26, 0x71, 0x3f, 0xa7, 0xea, 0xe8, 0xbe,
  0x33, 0x83, 0xae, 0xbf, 0x62, 0xff, 0xff, 0xff, 0x04, 0x00, 0x00, 0x00,
  0x80, 0x00, 0x00, 0x00, 0xf2, 0x09, 0x12, 0xc0, 0x1b, 0x50, 0x23, 0x3f,
  0xb4, 0x2a, 0x52, 0x3f, 0xba, 0xc2, 0x82, 0xc0, 0xa3, 0x2d, 0x35, 0x3f,
  0x2a, 0x93, 0x90, 0xc0, 0x05, 0x59, 0xc9, 0x3b, 0x38, 0xfc, 0x7b, 0xbe,
  0xd7, 0x4e, 0x57, 0xc0, 0x60, 0x53, 0xaa, 0xbc, 0x42, 0x10, 0x81, 0xc0,
  0xac, 0x41, 0x2e, 0xbe, 0x2a, 0x7d, 0x47, 0xc0, 0x94, 0xd1, 0x81, 0x3f,
  0x61, 0x29, 0x8b, 0xbe, 0x6c, 0x5f, 0x3f, 0xc0, 0xee, 0x2f, 0xbd, 0xbd,
  0x2d, 0x81, 0x5c, 0xc0, 0x18, 0xff, 0x58, 0xc0, 0x8d, 0x49, 0xeb, 0x3e,
  0x76, 0x79, 0x7d, 0x3f, 0x69, 0x35, 0xe9, 0x3e, 0xc6, 0x63, 0x8b, 0xc0,
  0xcc, 0x5c, 0x05, 0x3f, 0xba, 0xef, 0x97, 0xc0, 0x8c, 0x17, 0x80, 0xc0,
  0x2f, 0xaa, 0xf3, 0x3e, 0x0c, 0x2c, 0x39, 0xc0, 0x98, 0x21, 0x5c, 0xc0,
  0xbd, 0x35, 0xfa, 0xbf, 0xa7, 0x80, 0xed, 0x3e, 0x2d, 0x9d, 0x85, 0xc0,
  0xee, 0xff, 0xff, 0xff, 0x04, 0x00, 0x00, 0x00, 0x04, 0x00, 0x00, 0x00,
  0x32, 0x77, 0x90, 0x41, 0x00, 0x00, 0x06, 0x00, 0x08, 0x00, 0x04, 0x00,
  0x06, 0x00, 0x00, 0x00, 0x04, 0x00, 0x00, 0x00, 0x80, 0x00, 0x00, 0x00,
  0xb6, 0x37, 0xda, 0x3e, 0x3c, 0x57, 0x95, 0x3e, 0x7d, 0x0a, 0x7f, 0x3e,
  0x02, 0x45, 0xd9, 0xbe, 0xc1, 0x4a, 0x6e, 0x3e, 0x4b, 0x32, 0xd4, 0x3e,
  0x2d, 0x6c, 0x11, 0xbe, 0x6b, 0x6f, 0x19, 0xbe, 0x04, 0xa4, 0xeb, 0x3e,
  0x9d, 0x29, 0x10, 0xbe, 0x22, 0x3f, 0x50, 0xbf, 0x23, 0x19, 0x0a, 0xbe,
  0x95, 0xd1, 0xda, 0x3e, 0xd4, 0xb9, 0xb8, 0x3e, 0xd9, 0x04, 0x03, 0xbe,
  0x4a, 0xc2, 0xa3, 0x3e, 0x37, 0x89, 0x09, 0xbe, 0x8e, 0x23, 0xef, 0xbe,
  0x03, 0x4a, 0x9c, 0x3e, 0x29, 0xcc, 0x89, 0x3e, 0xc5, 0x68, 0xbc, 0x3e,
  0x45, 0x46, 0xb4, 0x3e, 0x89, 0x21, 0xb2, 0x3d, 0xce, 0x92, 0x80, 0x3e,
  0x38, 0x01, 0xad, 0x3e, 0x8b, 0x85, 0x8a, 0xbf, 0xbc, 0x35, 0x9a, 0x3e,
  0xa5, 0x27, 0xc6, 0x3e, 0xae, 0x27, 0xd2, 0x3e, 0x81, 0x71, 0x3c, 0xbe,
  0x54, 0x1f, 0x90, 0x3e, 0x6c, 0x9e, 0xbe, 0x3e, 0x90, 0xfb, 0xff, 0xff,
  0x94, 0xfb, 0xff, 0xff, 0x0f, 0x00, 0x00, 0x00, 0x4d, 0x4c, 0x49, 0x52,
  0x20, 0x43, 0x6f, 0x6e, 0x76, 0x65, 0x72, 0x74, 0x65, 0x64, 0x2e, 0x00,
  0x01, 0x00, 0x00, 0x00, 0x14, 0x00, 0x00, 0x00, 0x00, 0x00, 0x0e, 0x00,
  0x18, 0x00, 0x14, 0x00, 0x10, 0x00, 0x0c, 0x00, 0x08, 0x00, 0x04, 0x00,
  0x0e, 0x00, 0x00, 0x00, 0x14, 0x00, 0x00, 0x00, 0x1c, 0x00, 0x00, 0x00,
  0xd8, 0x00, 0x00, 0x00, 0xdc, 0x00, 0x00, 0x00, 0xe0, 0x00, 0x00, 0x00,
  0x04, 0x00, 0x00, 0x00, 0x6d, 0x61, 0x69, 0x6e, 0x00, 0x00, 0x00, 0x00,
  0x03, 0x00, 0x00, 0x00, 0x80, 0x00, 0x00, 0x00, 0x38, 0x00, 0x00, 0x00,
  0x04, 0x00, 0x00, 0x00, 0x9a, 0xff, 0xff, 0xff, 0x10, 0x00, 0x00, 0x00,
  0x00, 0x00, 0x00, 0x08, 0x0c, 0x00, 0x00, 0x00, 0x10, 0x00, 0x00, 0x00,
  0x0c, 0xfc, 0xff, 0xff, 0x01, 0x00, 0x00, 0x00, 0x09, 0x00, 0x00, 0x00,
  0x03, 0x00, 0x00, 0x00, 0x08, 0x00, 0x00, 0x00, 0x03, 0x00, 0x00, 0x00,
  0x02, 0x00, 0x00, 0x00, 0xca, 0xff, 0xff, 0xff, 0x10, 0x00, 0x00, 0x00,
  0x00, 0x00, 0x00, 0x08, 0x10, 0x00, 0x00, 0x00, 0x14, 0x00, 0x00, 0x00,
  0xba, 0xff, 0xff, 0xff, 0x00, 0x00, 0x00, 0x01, 0x01, 0x00, 0x00, 0x00,
  0x08, 0x00, 0x00, 0x00, 0x03, 0x00, 0x00, 0x00, 0x07, 0x00, 0x00, 0x00,
  0x04, 0x00, 0x00, 0x00, 0x01, 0x00, 0x00, 0x00, 0x00, 0x00, 0x0e, 0x00,
  0x16, 0x00, 0x00, 0x00, 0x10, 0x00, 0x0c, 0x00, 0x0b, 0x00, 0x04, 0x00,
  0x0e, 0x00, 0x00, 0x00, 0x18, 0x00, 0x00, 0x00, 0x00, 0x00, 0x00, 0x08,
  0x18, 0x00, 0x00, 0x00, 0x1c, 0x00, 0x00, 0x00, 0x00, 0x00, 0x06, 0x00,
  0x08, 0x00, 0x07, 0x00, 0x06, 0x00, 0x00, 0x00, 0x00, 0x00, 0x00, 0x01,
  0x01, 0x00, 0x00, 0x00, 0x07, 0x00, 0x00, 0x00, 0x03, 0x00, 0x00, 0x00,
  0x00, 0x00, 0x00, 0x00, 0x05, 0x00, 0x00, 0x00, 0x06, 0x00, 0x00, 0x00,
  0x01, 0x00, 0x00, 0x00, 0x09, 0x00, 0x00, 0x00, 0x01, 0x00, 0x00, 0x00,
  0x00, 0x00, 0x00, 0x00, 0x0a, 0x00, 0x00, 0x00, 0x2c, 0x03, 0x00, 0x00,
  0xd8, 0x02, 0x00, 0x00, 0x9c, 0x02, 0x00, 0x00, 0x5c, 0x02, 0x00, 0x00,
  0x1c, 0x02, 0x00, 0x00, 0xcc, 0x01, 0x00, 0x00, 0x60, 0x01, 0x00, 0x00,
  0xd0, 0x00, 0x00, 0x00, 0x40, 0x00, 0x00, 0x00, 0x04, 0x00, 0x00, 0x00,
  0x12, 0xfd, 0xff, 0xff, 0x00, 0x00, 0x00, 0x01, 0x10, 0x00, 0x00, 0x00,
  0x10, 0x00, 0x00, 0x00, 0x0a, 0x00, 0x00, 0x00, 0x18, 0x00, 0x00, 0x00,
  0xfc, 0xfc, 0xff, 0xff, 0x08, 0x00, 0x00, 0x00, 0x49, 0x64, 0x65, 0x6e,
  0x74, 0x69, 0x74, 0x79, 0x00, 0x00, 0x00, 0x00, 0x02, 0x00, 0x00, 0x00,
  0x01, 0x00, 0x00, 0x00, 0x01, 0x00, 0x00, 0x00, 0x4a, 0xfd, 0xff, 0xff,
  0x00, 0x00, 0x00, 0x01, 0x10, 0x00, 0x00, 0x00, 0x10, 0x00, 0x00, 0x00,
  0x09, 0x00, 0x00, 0x00, 0x6c, 0x00, 0x00, 0x00, 0x34, 0xfd, 0xff, 0xff,
  0x5e, 0x00, 0x00, 0x00, 0x73, 0x65, 0x71, 0x75, 0x65, 0x6e, 0x74, 0x69,
  0x61, 0x6c, 0x5f, 0x31, 0x5f, 0x31, 0x2f, 0x64, 0x65, 0x6e, 0x73, 0x65,
  0x5f, 0x34, 0x5f, 0x31, 0x2f, 0x4d, 0x61, 0x74, 0x4d, 0x75, 0x6c, 0x3b,
  0x73, 0x65, 0x71, 0x75, 0x65, 0x6e, 0x74, 0x69, 0x61, 0x6c, 0x5f, 0x31,
  0x5f, 0x31, 0x2f, 0x64, 0x65, 0x6e, 0x73, 0x65, 0x5f, 0x34, 0x5f, 0x31,
  0x2f, 0x52, 0x65, 0x6c, 0x75, 0x3b, 0x73, 0x65, 0x71, 0x75, 0x65, 0x6e,
  0x74, 0x69, 0x61, 0x6c, 0x5f, 0x31, 0x5f, 0x31, 0x2f, 0x64, 0x65, 0x6e,
  0x73, 0x65, 0x5f, 0x34, 0x5f, 0x31, 0x2f, 0x42, 0x69, 0x61, 0x73, 0x41,
  0x64, 0x64, 0x00, 0x00, 0x02, 0x00, 0x00, 0x00, 0x01, 0x00, 0x00, 0x00,
  0x20, 0x00, 0x00, 0x00, 0xd6, 0xfd, 0xff, 0xff, 0x00, 0x00, 0x00, 0x01,
  0x10, 0x00, 0x00, 0x00, 0x10, 0x00, 0x00, 0x00, 0x08, 0x00, 0x00, 0x00,
  0x6c, 0x00, 0x00, 0x00, 0xc0, 0xfd, 0xff, 0xff, 0x5e, 0x00, 0x00, 0x00,
  0x73, 0x65, 0x71, 0x75, 0x65, 0x6e, 0x74, 0x69, 0x61, 0x6c, 0x5f, 0x31,
  0x5f, 0x31, 0x2f, 0x64, 0x65, 0x6e, 0x73, 0x65, 0x5f, 0x33, 0x5f, 0x31,
  0x2f, 0x4d, 0x61, 0x74, 0x4d, 0x75, 0x6c, 0x3b, 0x73, 0x65, 0x71, 0x75,
  0x65, 0x6e, 0x74, 0x69, 0x61, 0x6c, 0x5f, 0x31, 0x5f, 0x31, 0x2f, 0x64,
  0x65, 0x6e, 0x73, 0x65, 0x5f, 0x33, 0x5f, 0x31, 0x2f, 0x52, 0x65, 0x6c,
  0x75, 0x3b, 0x73, 0x65, 0x71, 0x75, 0x65, 0x6e, 0x74, 0x69, 0x61, 0x6c,
  0x5f, 0x31, 0x5f, 0x31, 0x2f, 0x64, 0x65, 0x6e, 0x73, 0x65, 0x5f, 0x33,
  0x5f, 0x31, 0x2f, 0x42, 0x69, 0x61, 0x73, 0x41, 0x64, 0x64, 0x00, 0x00,
  0x02, 0x00, 0x00, 0x00, 0x01, 0x00, 0x00, 0x00, 0x40, 0x00, 0x00, 0x00,
  0x62, 0xfe, 0xff, 0xff, 0x00, 0x00, 0x00, 0x01, 0x10, 0x00, 0x00, 0x00,
  0x10, 0x00, 0x00, 0x00, 0x07, 0x00, 0x00, 0x00, 0x4c, 0x00, 0x00, 0x00,
  0x4c, 0xfe, 0xff, 0xff, 0x3e, 0x00, 0x00, 0x00, 0x73, 0x65, 0x71, 0x75,
  0x65, 0x6e, 0x74, 0x69, 0x61, 0x6c, 0x5f, 0x31, 0x5f, 0x31, 0x2f, 0x64,
  0x65, 0x6e, 0x73, 0x65, 0x5f, 0x33, 0x5f, 0x31, 0x2f, 0x52, 0x65, 0x6c,
  0x75, 0x3b, 0x73, 0x65, 0x71, 0x75, 0x65, 0x6e, 0x74, 0x69, 0x61, 0x6c,
  0x5f, 0x31, 0x5f, 0x31, 0x2f, 0x64, 0x65, 0x6e, 0x73, 0x65, 0x5f, 0x33,
  0x5f, 0x31, 0x2f, 0x42, 0x69, 0x61, 0x73, 0x41, 0x64, 0x64, 0x00, 0x00,
  0x01, 0x00, 0x00, 0x00, 0x40, 0x00, 0x00, 0x00, 0xca, 0xfe, 0xff, 0xff,
  0x00, 0x00, 0x00, 0x01, 0x10, 0x00, 0x00, 0x00, 0x10, 0x00, 0x00, 0x00,
  0x06, 0x00, 0x00, 0x00, 0x2c, 0x00, 0x00, 0x00, 0xb4, 0xfe, 0xff, 0xff,
  0x1f, 0x00, 0x00, 0x00, 0x73, 0x65, 0x71, 0x75, 0x65, 0x6e, 0x74, 0x69,
  0x61, 0x6c, 0x5f, 0x31, 0x5f, 0x31, 0x2f, 0x64, 0x65, 0x6e, 0x73, 0x65,
  0x5f, 0x33, 0x5f, 0x31, 0x2f, 0x4d, 0x61, 0x74, 0x4d, 0x75, 0x6c, 0x00,
  0x02, 0x00, 0x00, 0x00, 0x40, 0x00, 0x00, 0x00, 0x13, 0x00, 0x00, 0x00,
  0x16, 0xff, 0xff, 0xff, 0x00, 0x00, 0x00, 0x01, 0x10, 0x00, 0x00, 0x00,
  0x10, 0x00, 0x00, 0x00, 0x05, 0x00, 0x00, 0x00, 0x1c, 0x00, 0x00, 0x00,
  0x00, 0xff, 0xff, 0xff, 0x0f, 0x00, 0x00, 0x00, 0x61, 0x72, 0x69, 0x74,
  0x68, 0x2e, 0x63, 0x6f, 0x6e, 0x73, 0x74, 0x61, 0x6e, 0x74, 0x33, 0x00,
  0x02, 0x00, 0x00, 0x00, 0x20, 0x00, 0x00, 0x00, 0x40, 0x00, 0x00, 0x00,
  0x52, 0xff, 0xff, 0xff, 0x00, 0x00, 0x00, 0x01, 0x10, 0x00, 0x00, 0x00,
  0x10, 0x00, 0x00, 0x00, 0x04, 0x00, 0x00, 0x00, 0x1c, 0x00, 0x00, 0x00,
  0x3c, 0xff, 0xff, 0xff, 0x0f, 0x00, 0x00, 0x00, 0x61, 0x72, 0x69, 0x74,
  0x68, 0x2e, 0x63, 0x6f, 0x6e, 0x73, 0x74, 0x61, 0x6e, 0x74, 0x32, 0x00,
  0x02, 0x00, 0x00, 0x00, 0x01, 0x00, 0x00, 0x00, 0x20, 0x00, 0x00, 0x00,
  0x8e, 0xff, 0xff, 0xff, 0x00, 0x00, 0x00, 0x01, 0x10, 0x00, 0x00, 0x00,
  0x10, 0x00, 0x00, 0x00, 0x03, 0x00, 0x00, 0x00, 0x1c, 0x00, 0x00, 0x00,
  0x78, 0xff, 0xff, 0xff, 0x0f, 0x00, 0x00, 0x00, 0x61, 0x72, 0x69, 0x74,
  0x68, 0x2e, 0x63, 0x6f, 0x6e, 0x73, 0x74, 0x61, 0x6e, 0x74, 0x31, 0x00,
  0x01, 0x00, 0x00, 0x00, 0x01, 0x00, 0x00, 0x00, 0xc6, 0xff, 0xff, 0xff,
  0x00, 0x00, 0x00, 0x01, 0x10, 0x00, 0x00, 0x00, 0x10, 0x00, 0x00, 0x00,
  0x02, 0x00, 0x00, 0x00, 0x1c, 0x00, 0x00, 0x00, 0xb0, 0xff, 0xff, 0xff,
  0x0e, 0x00, 0x00, 0x00, 0x61, 0x72, 0x69, 0x74, 0x68, 0x2e, 0x63, 0x6f,
  0x6e, 0x73, 0x74, 0x61, 0x6e, 0x74, 0x00, 0x00, 0x01, 0x00, 0x00, 0x00,
  0x20, 0x00, 0x00, 0x00, 0x00, 0x00, 0x16, 0x00, 0x18, 0x00, 0x14, 0x00,
  0x00, 0x00, 0x10, 0x00, 0x0c, 0x00, 0x08, 0x00, 0x00, 0x00, 0x00, 0x00,
  0x00, 0x00, 0x07, 0x00, 0x16, 0x00, 0x00, 0x00, 0x00, 0x00, 0x00, 0x01,
  0x14, 0x00, 0x00, 0x00, 0x14, 0x00, 0x00, 0x00, 0x01, 0x00, 0x00, 0x00,
  0x14, 0x00, 0x00, 0x00, 0x04, 0x00, 0x04, 0x00, 0x04, 0x00, 0x00, 0x00,
  0x01, 0x00, 0x00, 0x00, 0x78, 0x00, 0x00, 0x00, 0x02, 0x00, 0x00, 0x00,
  0x01, 0x00, 0x00, 0x00, 0x13, 0x00, 0x00, 0x00, 0x01, 0x00, 0x00, 0x00,
  0x10, 0x00, 0x00, 0x00, 0x0c, 0x00, 0x0c, 0x00, 0x0b, 0x00, 0x00, 0x00,
  0x00, 0x00, 0x04, 0x00, 0x0c, 0x00, 0x00, 0x00, 0x09, 0x00, 0x00, 0x00,
  0x00, 0x00, 0x00, 0x09,
};

const int model_resp_len = 15208;
